b07d
2e2f
af34
af76
2dfd
b2f0
2ab3
ac75
2d4a
b3fb
ab70
2ed2
ae51
a932
3102
af33
b0db
3462
a9dd
2cf2
2e1c
342a
284d
b4ca
a605
956b
ae8f
aa5a
b3de
31a6
2cea
2e72
ad9c
3251
32ba
27bf
2e51
2802
b2f7
b111
2c29
a618
310f
2f5a
a81d
30e2
3218
3460
ab06
acae
1211
b376
b5a5
b38c
32a2
a9e2
ad76
b3f8
b3f3
2c7d
2bb2
3144
288e
30c7
b109
2afc
b061
b24b
3448
2ee5
2c79
328d
3145
30fb
b371
2b31
af47
b0a8
b067
3085
b176
3413
a6ed
a41d
2ba0
a79e
b18a
34fa
2aae
b167
2d1c
adc8
b3d0
aa4c
af35
b4de
ae8d
a7c7
32cd
2eac
b449
2b49
2da5
33bb
b036
266d
2d94
2b9c
a694
b3a5
aef4
2b6a
34cf
2591
ab12
b3f6
b1cb
1d2b
b040
b2be
3113
a9d2
ac52
2f30
b3f7
3286
2e2e
a5ae
3094
b171
b08a
a595
3475
32df
2da2
347b
ab4e
2db8
31fe
3499
b2c8
3048
3014
b033
a9e7
b2cd
31d5
ac8e
aa09
3255
a9e3
b009
a3b7
30c7
a441
33f8
af09
2e9c
2dab
b252
287e
a663
b03b
2dcb
319a
b4c2
2d00
14c0
2a15
2f6e
3019
27f4
a586
b088
a7af
ac36
2877
a5e1
2f59
b3d9
ad7d
ab41
ac79
35a4
b0d9
35e0
aad1
b309
303a
3226
b12a
185f
26b4
3001
b465
3244
2ea5
b179
b0f8
2762
b2c1
2b4b
3513
1f8f
acb0
aa4b
b058
2d87
b4f8
2ab1
b38f
2c4e
aef7
30cc
b0b0
3436
b0ee
2ec8
add7
b1c3
2c43
9dd5
2f8c
2fa4
319a
a95d
32e8
324e
a5de
2c40
2b7c
2a46
3036
31f4
afe2
3421
b094
aa0d
ae6e
aefa
30f2
3032
25d8
3451
2835
3040
ae1e
2f5b
b3d0
b15a
a9a1
b051
9997
a83c
ad55
1f8d
26a1
27ce
2d94
3017
b1b0
b110
3091
b15f
b14f
aecd
b0bf
aa2a
33d3
b50e
ac21
ab19
abcf
b007
24db
3457
b40a
30b7
b008
14c3
b01d
a6a8
2d05
29f0
3086
2d99
a3e7
ac28
3301
2861
30b9
30c3
b315
2dab
1fb4
31f5
b1b9
ac80
b10f
ad27
ae5e
b521
abb0
2c50
b0ac
31af
b595
299f
3225
2dfa
b0c3
3099
2c19
3371
302f
b064
2d0e
b403
af7c
3400
b200
a015
3015
b097
3060
2de4
2c54
adc0
a9e1
303f
3126
23f6
2f35
2074
2d4a
343c
32f0
a1d6
2fdf
aaf0
3446
28f3
b036
2f3f
2d32
b216
ad92
2c1e
33f5
3070
ab2f
28d8
b2fc
b298
354f
34d5
aa5d
ae50
31fe
b269
aefb
1d83
b107
27ec
33bf
b2a6
b156
ad63
36b7
afac
ab14
3559
1dbf
b10c
2812
b149
2fe1
b0eb
ad0e
aaac
267d
2e8a
323b
b00f
2ed7
2f76
1a47
30db
3488
b55c
326a
b08d
2c30
ac7a
a9c7
2ff8
b0b3
b102
2ed9
ade1
34c8
341f
a6fd
2bb0
b20a
98ec
b0a8
b269
b1c1
b0e5
b170
b0f7
3401
b061
300b
afec
336b
a1e7
b133
b172
2c42
2a19
2b3f
a2d6
3036
af5e
ac99
30b6
338c
3152
aa38
3199
2bd0
2f9e
aed4
adc5
3529
9c23
b175
2aa5
3233
b18c
adf5
329c
33de
b390
3254
ac72
2a98
2ef1
afdb
f95
b290
9e5a
311f
b18b
b193
3313
3229
b036
2cd7
a8a7
a88e
95a5
ab64
a96b
2ca7
30d1
2e51
300a
300a
3368
3256
2930
b46b
aa67
9c2a
a88a
b047
2c9d
3343
2ce7
31da
240c
b180
b281
af7b
aab6
2f6a
b1d7
3281
b31c
b3da
2bab
335d
b0ef
ae19
333b
2de2
302f
80c
20ba
ae46
ac2a
b064
a790
3094
2090
3181
307d
2dd3
a85e
ac60
ad8d
ace5
3629
b025
aafa
343f
18ef
af41
318a
2752
b2ee
a558
26ca
b0bf
33a8
2c8e
b247
9bb3
a984
9e96
30fb
ac4e
30cf
af4b
2e92
2b73
3224
b54b
96fa
b03b
b4a3
3214
b27c
a9bb
3579
ad19
949c
2c57
b349
2c4a
2d63
2dea
b501
2cc7
342b
a3ec
2fc0
ac0d
3367
b311
adec
b2b5
2697
b362
a12b
3092
2355
308b
b398
aaaa
ab57
3434
3011
2e47
2d4d
309e
adc1
b2e5
af5e
b118
b429
acae
334e
260b
289d
27b7
afb4
2d72
afae
b33a
a36b
30a7
1e73
2b6d
302e
adce
b1dc
abcd
2ee1
32ea
b20a
b25c
28a0
301b
a281
2847
b3eb
2d9f
a900
29c0
3296
b12e
b404
b148
ac01
30ec
b35a
2c66
2c50
ae28
b1f7
2b64
b192
2f22
3628
303a
3146
af90
acb1
34c6
adbb
2eb9
3027
3242
ad1b
a95a
2638
addd
31b6
b103
ae13
2cc7
b114
351c
af01
a9c5
2d52
9fc9
30ab
9ba9
34a8
2b15
1d53
297a
b467
b12d
2cd6
a22a
3306
a7f0
2f24
a1c8
2486
2dff
adc9
3205
b1b8
2254
b359
2db7
2351
2d5b
b27b
ae2f
af27
ac87
b1b0
3297
356e
331a
33c0
303b
af3a
addf
2dfd
af64
af90
b030
b1ff
2da2
3368
2d69
b1de
b06c
2d42
3494
acb7
a905
ac7d
3428
2649
a243
afb2
a049
af61
2eb8
2c1a
acf6
aef3
3089
2aad
adaa
b059
2d58
b078
b4f8
afb9
b0fb
abee
b150
26ad
32c9
2b35
a980
2d29
3124
2ad3
b105
b21d
318c
2bb0
b04f
b2db
b139
b184
30a2
3247
b346
33f8
aad2
2eaa
a63a
b0e5
adab
23f9
21b7
b299
a839
a839
b21d
9e21
ad9f
ac02
307c
3021
a4b7
aee8
b0e4
34db
b093
34df
afb4
2c97
aa41
248d
2f0c
2a13
b459
326c
360c
a635
30cf
33b6
2f4e
2d43
3496
acd8
a08f
353d
2dc2
2f67
b116
b13c
b006
9891
2fe8
2e1f
ad0a
2684
b35a
b264
ab4f
a0af
9f6f
aa83
287d
b3ad
a403
2cb2
2c6e
b3f2
305e
af3a
1f1d
ad6a
b3b0
b11b
3118
a8e8
24ef
ac16
3212
b249
b191
2b15
b2b6
a541
b2ab
b3bc
a49b
a70f
33fb
aff1
ae48
b009
b1cc
b58a
2cf2
3094
a817
af20
b01f
30aa
a92a
2cf7
aa42
2f21