279d
aac1
a60e
ab14
2c76
2651
28ae
2df2
9ee1
2067
27b2
2a85
ab19
a834
aade
a95f
27f2
2dc1
a7ea
a920
2c8b
2431
ace1
aa21
2a11
3000
3013
2b49
29e6
ac6e
2262
288b
af4a
ae50
24d5
2c04
2756
a84c
1349
28b0
2178
2010
2dc4
a283
adfa
2ca9
8f42
2ce0
2d27
a522
2c78
a5df
2f00
28e6
a9b3
29a5
a5c2
2891
a4f2
aa48
a961
a464
2c27
2b5e
a609
2f4d
ace7
a497
a1cd
adb2
2a87
2eb8
a8dc
aec2
ae34
a498
acbd
978d
2d23
b01c
98c3
2c88
2ecd
a561
29c3
a92c
ac62
2b07
a475
283d
29b0
9f0d
2886
2b44
ad08
2169
1f40
a263
a3a0
97fd
a6df
aa2d
2021
26ae
adde
a7d7
aba5
1f06
232d
2d29
2d7b
2887
ac09
2c2d
10dd
a8e6
acc8
2f58
2c15
29f8
ae70
24fd
2ad9
2cf4
a8dd
2ee4
28b4
2f2e
ad0f
2c15
a47b
27b6
2b13
a2cc
2860
2ca4
aeaf
ac05
abb8
2d83
2926
260e
2ad2
aa90
29e8
aad2
a80d
25de
96e6
a9f7
975d
a225
ac8f
a1c6
a733
2cdd
2b04
99ef
2c5e
a814
2c90
aa1b
2a2b
a844
ab03
a084
2652
2977
aedd
a80d
a70b
2b7c
2d59
aa41
a603
acf9
abfa
accb
2794
21c3
a879
163a
2937
26b7
ad78
a1af
2463
242b
a5e6
2af8
27ef
ac08
2cdc
9e34
22f7
1b06
af71
2c19
248f
a722
2ad8
2d3b
aa1c
aa70
acd6
2d8c
a68f
a82c
a629
2b81
ab7b
284e
20fc
248c
2615
2983
acf2
23ff
adef
2b30
2c26
27c0
ab58
a906
a5db
292c
adff
2a96
a55e
2ea9
2861
ad32
2c61
ac48
1d29
283e
26ab
ad26
2cf
9c18
ab87
2d4b
acaf
acdc
abff
27c7
28d9
ae31
a9aa
a7d6
9966
2cad
a2ce
a503
a73d
a97e
2a0d
acc0
a973
2647
2c04
ac30
2c91
2a3a
2bb8
ac08
2ca8
a8bc
267e
2c12
2e15
2a44
ac06
2359
ad21
a14f
26f7
305b
2d3f
2d08
25ba
a5cb
164a
a46e
27cf
2a61
2e3e
2da3
ada5
2da2
28dd
a390
2d47
a8f5
2c61
2849
aa48
2ab0
1de5
9ed2
2c59
29c5
adee
2c33
a5ec
2f52
23ec
2bee
ab78
ab0b
a6ae
2962
9ce5
a03d
a323
a658
22a0
ae65
2abc
acae
2908
ad12
a4df
af05
2a68
2c75
2257
aab4
2b8b
1feb
289f
ad27
2ea8
ac9a
2d0d
2171
2cf7
ac9b
acd3
a0f4
2d25
2ba9
2b2e
a4e9
2d46
2ac5
ab6d
28be
a483
a79c
aeaf
2a56
2872
2d81
aa62
9b78
2851
a015
2be4
a8c0
2c55
2b20
1aea
ad14
ad9a
2e17
a055
a055
a27a
1e99
ad83
a870
2f2e
aa3c
acf0
2984
a7fe
a8c3
a454
1e5c
1dcc
29b7
aa98
2af4
a569
277c
1ce8
2f8a
2e22
2cb9
ada1
a420
2808
2908
28d5
a6cb
a6ed
21c3
aa93
2bcd
2fac
a4f6
2892
b007
acfc
af32
ab1b
ab6f
24b1
a41c
2dce
acdf
a943
2908
a514
2c38
2ce6
2d42
ab7e
abb5
a0b6
ad56
ad02
a342
2966
a9c2
2e0f
acc2
2b59
ad97
2cfd
aa72
ad9d
2c47
2be9
9c01
ab33
30a4
a001
2c30
ad14
a85e
a9e6
2a1d
269e
ade1
a405
2c64
26fe
3020
afd8
2d6e
a935
2d4d
a5b9
a161
1a3b
2a68
2e2a
af79
2a96
a563
2f04
2750
a7c0
246a
a761
aa06
ac22
a7f5
a8ae
2939
b0c4
a820
a820
2502
aedd
2962
2fac
a71e
9f0b
ad07
2bb3
ae5e
9ab6
aafd
a8e0
a7eb
2766
a617
ade2
aeb7
2cfa
ac0a
273a
2a78
ac35
af82
aa67
9fa0
ac62
adfc
3064
ad11
26c4
aca8
ad11
25e1
a579
2d57
ad41
24f4
b00c
a9e4
a6a6
aa75
9a1c
2c39
afa9
2861
29f0
a4a5
9f0e
a581
af0b
af12
2856
a86b
2dd0
23e7
2c29
1c0e
24bb
ab2d
aa75
2e4f
265e
2882
a865
2236
155c
aca2
24fe
2afb
2c16
2d43
28b6
2f6c
ac41
aca6
2977
af29
2c52
acd9
2982
2a54
2f31
2022
9f19
2837
2d9a
291a
2d3d
272e
aa4d
ad2f
2c1b
2909
2f7c
2928
2dbb
add5
a979
acf4
ae87
27cc
29bc
281e
2caf
aab9
a430
1915
a697
aaaa
2946
2ed7
adcb
2223
231b
2821
a9cb
a330
af43
b021
a89c
9668
aa5b
e5d
9c85
2d6b
ad9a
aea7
2dba
ae3f
2c3a
ac06
2caf
af22
adc9
adef
aa73
2b24
b00b
2cfa
23c5
ad59
a8e2
a1c7
ae7e
221b
ac2c
2ade
27d0
ab13
2569
2d9d
ac43
1bc0
a92c
2973
af6b
a95c
a44e
2a43
2f34
af05
a428
252f
2b07
2db4
ae81
2dc5
aac6
303f
2c2c
a85e
a94c
2f63
aeb8
a8e8
ac9e
2d85
2be3
210c
1cbd
2956
2cf4
a6bd
a1cd
aa44
2d31
ad2a
2a52
a8fb
2e69
a87f
2d2a
abf0
ae97
ab01
a488
af00
ab79
ac91
22b8
2252
2cdb
3000
ab0b
ad21
ae97
a92c
ac0d
9f66
acf6
99b6
a641
afcf
ae1b
2d00
280e
27b5
a96a
a59c
ac41
ae3c
30a2
2cc8
acd2
ad07
a2ad
2df8
ac80
a814
9e44
ac00
a7ee
ac79
ad4e
2f44
294d
b007
2a12
2434
ac9f
a784
2605
2cfb
ae24
aaa8
2d7c
2ee4
a4e9
29ce
2913
ab33
a435
ac8a
a26a
ae3b
a5f8
2c9e
abae
ab69
acef
2533
ab1b
28a0
248c
aa73
2c32
2e73
ab7a
a1d6
ac16
ad27
2b72
a403
262a
2cad
2c07
ad6d
a540
1ece
9fd3
2c4a
ac3e
ae4a
2c15
ac6a
2bf4
a70c
2da2
2c50
2dad
ab30
2e7c
a456
2c09
2c22
a634
2bfe
a567
aca8
25ac
269e
ac9d
2166
2c27
2a14
2b0c
ae28
ad64
ab23
aa1d
a3a6
1cfb
ac0b
2226
2833
9e49
a314
ad8b
28d1
a5f9
1a2b
2de8
a90d
28b8
2f6b
996b
a54b
a8e2
263f
ae88
293f
a143
2a75
a436
2e1f
27b1
a70d
a684
a536
2ca1
2dff
aabc
2924
a9ce
1f50
297b
ac7a
2806
a18e
a099
ace3
2d90
a585
2630
ad44
aecd
acb0
a2b9
ac84
2208
abf2
accc
a955
ac41
2c7e
280f
ab5e
2c5b
27dc
a3cf
2d1a
2d45
1b62
ac5d
ae73
a396
2e9a
ae49
2273
9c81
1f83
2697
2134
3043
2cc4
ac64
3017
2e4a
2bc2
94ad
aa3a
2a44
2953
2fc4
2d3b
ac04
2b55
ad04
ac12
2c67
a533
adde
a872
2c77
2d7d
a0ba
a94c
ac92
2bec
a46d
22e3
ae86
30f1
1cbf
a71d
2c85
2a94
2c0e
ac0d
a035
aca0
a8d7
206a
2cd8
ae9d
2ac8
9fe0
a6ac
255f
a873
ac35
1fa0
2d3f
a7cb
2825
a46d
ac86
2f65
287a
ad68
ac66
9f68
2048
25c8
aacc
ae24
2eab
ab11
a2d1
2974
a078
a722
af40
a9a6
2dce
2a8f
9981
abd9
2ce8
2634
ac3a
2fe9
a00b
a907
2784
a478
307f
2126
2aab
297c
2407
ac63
1e77
a99b
2b57
29e2
ac5a
ac48
ad0d
ad38
aba1
259a
20f1
2007
2cca
ac39
2dd0
a3a0
aca1
a86e
af1f
2730
2982
ab2a
2df8
ae9f
2a32
a88a
a889
266b
ac06
2a25
af1f
2e33
aeb6
a797
ae38
ac01
229f
239e
ad71
2e32
9d42
a2f1
ae0f
3045
2130
afb3
a8c1
2d31
2cb6
ab6d
2a1f
27f3
ab43
a5ce
aafe
2c0c
27cc
284a
27ce
2b24
27f9
a22d
2d4a
1bad
a8b8
2e4c
ac76
a6e6
2723
2a9a
abb8
2212
2d62
2c43
2bc9
21ef
adf3
2ae4
30ce
ad78
a5d8
2e16
ace7
2822
a260
2ca9
260e
ad03
2a20
ae4f
b191
a0df
ab18
2a7f
a9e3
aae2
2071
43f
2ad3
2836
9d13
3ba
a999
2d0a
2c15
2863
26b7
aa6c
a560
a6e4
ae0e
aac6
a035
acb2
25ef
ac62
2749
2ba9
2e03
ae3f
a43a
a713
a8f4
2685
2316
2eb3
2a6a
2c2c
29c4
a951
b09e
aa5f
2946
29c4
2f92
aedf
2c65
ae04
a80e
2d97
a6f2
a918
2de4
2bf2
2d36
2f15
2728
ad71
ad71
a4f0
a601
9a88
2f25
addf
a3a9
ae61
ac40
ad56
a023
2c08
aff4
a7b0
ac9b
a4a2
a20c
2fb7
a7b3
2801
28a1
a266
a883
2af4
2e7d
b0f3
2f60
1f0e
2b4e
3058
28d6
9cd2
a9c5
2cb5
ac5c
2879
adf4
2d52
2adc
95ec
2fa5
a5b2
21e8
2609
ac66
2cb4
2d7d
99b2
9ca3
aca7
2fbb
ad5d
af0f
2f48
293f
2a02
2b38
23f9
2a19
21bc
ad59
af6e
2b01
2ac4
a702
ad45
ab8a
a3a6
ae49
2c76
2e6a
2634
a553
a422
adb2
2cb5
a854
ac22
a96a
29ff
ae85
a37f
af04
adbb
2a54
2c51
2e1c
2401
2c59
a5b7
ae5e
225f
2807
a08f
2ee3
ab36
a4c2
293e
2c9a
2cd3
a7f7
ac11
a9c5
a88b
a947
abad
2a63
a7d2
2d1d
259e
ac78
abcf
a941
2b36
2e1b
2821
ae2b
ac99
2aae
ab98
acc4
13f9
2c3c
2876
a6a8
2d41
9e67
aae1
a545
ae00
2cf3
ac9b
a3c1
a8a7
ac35
ab74
2c87
2b4e
9f92
a8a6
a503
2593
2e1e
2c43
ab37
aafb
28cb
a8ed
ae14
a9f2
2982
2df9
ac13
ae25
a62b
2a62
1d08
ac99
aa8b
9ca5
a2ad
a585
adb9
29a0
1231
af1d
a8a8
2235
2a96
a86f
2e11
a270
a9a2
ab3d
a6ac
2a8b
a862
a84a
1f61
a359
2c89
a758
ab54
2c98
ac9f
297f
aeff
2d99
a0ca
2d1f
a014
a5e9
aa02
2a57
a085
a235
2c9d
ac21
2aaf
2e37
290b
2bec
af07
acf7
2ee6
2cc3
270e
acfc
2dae
2065
ac46
1c74
aa20
ac00
251e
ac91
2f69
283d
18c9
2b12
24bc
a534
acc0
a83c
2a24
b0a3
b093
25fc
ac9a
ae5a
ad77
2912
240d
afae
a247
af6a
ab11
ad73
ae60
2bf8
acb3
afbd
a9a8
a380
a481
2370
b029
aaba
13ec
29dd
aee6
23ae
af21
a8bd
af99
add0
2d7e
ade2
2fed
ae21
283c
28e7
3009
1c66
2953
ad72
3022
a783
2844
2c4a
b02d
a544
aefb
95f1
2b4f
2e90
a460
3066
290f
ae00
322c
af0a
ac74
2f06
2e65
2dda
ac5c
2df5
ab39
2745
a982
283f
2a90
ab42
ad0b
aa3a
ac99
9058
2ef4
aad8
1daf
2d9a
b064
2d68
1ff6
2a4a
2aaa
ac36
2da3
2a5b
acc4
23df
ae90
2bd5
1cf9
2f74
ab72
2fdc
2204
29ba
aff7
a89c
af68
ad9a
2137
aa21
2dbc
2875
2ce1
30bb
2797
aae9
a9ac
aca8
2c64
28e0
ab64
2f7f
af6c
aca2
aa47
299c
ae1c
ade4
28d8
2d85
29f6
ac4e
acf2
a9dd
27b2
ad2d
a834
acd3
a6ea
23d5
234a
2d3f
26cc
28c4
abcd
adf5
24cb
a97e
2a9f
98c9
af5c
ad13
a9e7
25b1
2d01
2c04
a977
1ce5
2490
292c
2b8c
b073
2656
2f24
295f
aea7
2494
a8f1
ab6c
217d
a494
28b7
2e7c
ac81
292e
ae09
ac1f
a6e9
a8aa
a6b7
a5e7
3051
2702
1dbb
2ed7
2c45
1a92
2d57
1ecc
24c2
2db4
a562
1d72
1f62
2959
a97e
2d08
25cb
2c63
2cf7
9dbe
2d88
a9ec
b014
2ce9
ab39
aa35
28b5
fdb
2066
2ece
2ba7
2836
2874
af75
2aaa
2252
ae1a
a503
2c93
2740
2dc6
28b6
27df
aa12
23d7
ac9c
2540
2af7
941a
2f11
b083
2c78
a587
2b64
ad6f
aedd
2d63
2c6e
99c1
ae12
2c48
2b51
aa8a
a989
11ce
2d8f
a962
ae4b
2a55
29b5
1496
ae1e
a522
a9ad
1ee3
9f8b
a974
28f4
aaa9
9ce8
ad5a
2a4b
ad30
24c6
2633
ab23
a644
a902
2522
ab9c
2be4
2912
256b
a460
aa35
a677
25f5
acb6
2e2a
2deb
acc7
ae15
2d36
ad1f
2496
2c0b
9b06
ac76
ab25
25ce
290b
257f
a60f
a1c4
ab74
307d
2f21
281c
20fc
ac6c
2c51
294e
a74d
9d93
2cb8
2a70
a8ca
2cf5
1f31
2d26
2baf
2c19
299d
2851
a401
2b2b
2df4
2808
2df6
258f
24e2
a315
ac3d
a8d7
a97e
2cd0
24ed
9a57
a633
2a3d
acdf
ac07
286f
ad02
28b3
a929
acf1
ac61
2949
25ea
a642
2cc4
acb9
2a24
a456
2d74
2c91
af88
29fa
ac15
aecb
a963
aae8
ab4b
a537
a921
ab06
a4a1
99a3
269d
2c96
acde
a82d
a984
a61a
258c
1df3
2848
a807
281c
2af5
ab18
afa6
aafe
a812
2e4d
2bb3
ac98
29e5
26a8
2f73
253a
ada9
aab3
220f
2d5e
aac1
ae0f
ada3
a92d
af68
1e17
a92d
af15
abad
aa1e
ad7e
acfc
2eee
abcb
203d
2f26
a321
ad77
a454
20ac
af27
ad60
2d90
2cc5
2fb0
a6e9
2fa6
a938
2e15
ae54
2fed
2d2b
ac63
2506
afd2
a690
2d73
9d5d
26a5
97d2
8a8e
30bf
2b4e
ab26
add0
a7f2
ad5a
a8ec
2d0d
acc6
a4a7
aa26
2eb8
25a0
a876
2d2d
2253
2e19
2c7c
a633
ac02
2d68
a28f
ac37
af77
2f5c
add7
2727
2cd8
ab5f
ac81
2bfb
26de
2d66
2a8e
2fb3
2928
28fd
2741
2da5
ad18
2620
a528
afcd
2d6a
a312
2b86
ab38
a885
2e3c
21ef
afc2
ae75
2de6
aec1
a281
aa07
21d1
9f00
2477
2552
2093
2aee
2a40
af1d
2d4d
a432
290f
a744
3013
2c61
303d
aede
2c29
addd
2cf7
9e99
2c35
28ad
c91
ab3e
2c27
2cdc
2da0
159f
2b78
9bb6
24bf
21ad
3024
274a
a937
b003
2b13
ad81
9b50
a872
2c35
ae04
2e74
2c03
1ec6
a647
23b8
ae56
a98c
afac
f41
acdf
2269
aea8
a9be
2d40
2bbe
2bd8
ac3f
a9e3
9cd6
174d
ad4a
2c4f
2201
aa81
2834
1b84
2e96
2ccd
ac1d
ad74
18fe
acf3
ac80
a84c
ac14
af7e
aea7
2f56
a65a
1e2f
30f9
2f6d
b043
a727
23bb
2c11
2b4a
2e24
29f0
ab7e
995b
a7df
2c90
a187
2c6d
2dcd
af52
28dd
25e4
abb1
1d6c
18f0
2c4d
a9cb
ab84
2cf6
2a86
ae23
ac5b
a808
1dab
2a6b
a58d
a81d
a330
2887
1d3a
ad38
ae69
a502
2988
2da8
a5ce
2adb
aae0
a621
2b77
2b7b
acb8
2fa3
b0dd
aa7d
af20
2f13
297c
b1ad
ae09
abcc
28c2
2d9a
aed4
3169
2eee
2ccc
2425
2d04
ac0a
2cb0
a59f
ae97
a6fc
2ce7
2e59
98cc
2d10
9ed7
184f
307e
2d63
2869
2e5a
2c56
254a
ae48
28ab
2b42
2d06
2d23
2d31
b15a
a2ff
ab77
afa5
30fc
aad4
2e94
ab48
a6f6
2f28
2810
2645
2c5d
b0c0
a9d4
2f75
306d
aa15
265e
aff2
acb9
a69d
a73a
2c23
ad3b
ae4e
2916
23f8
b04c
953e
ad56
a595
2c23
ac38
2cf5
303e
2c98
2008
a842
2b9e
a3bd
22eb
a4dc
2ebd
b0d5
29a3
afba
2460
2649
ae65
2ed5
a027
2e22
2b6d
2d7e
31f0
a956
2c67
ad83
b07a
a656
2c2f
b03d
2ce1
21c3
aecd
aa87
2918
2c62
ab19
28a1
a604
ae2c
30fd
ad8c
9527
9a62
2cc5
2afd
a9b6
ab05
31b7
2c72
2d80
a476
2f08
a1c0
2f60
acb1
2870
ab58
b079
af11
ab55
a556
2a1f
ac06
2b56
2b53
ac3d
2a1b
2d9c
a5fb
18aa
2c2a
a988
288a
ac14
b04b
a5f2
29ae
2a10
ac5a
aea2
ade6
ad97
ae33
274a
1b41
2d21
a07f
a828
2222
3012
ad53
aecd
af81
ad1a
a632
193e
17b9
2ad1
9f1d
2c9f
2d35
a53b
ae74
2ed3
ad39
ad0f
a851
1d7f
a7db
aa0b
a60a
afd9
a949
a79d
31fe
2d00
216a
2f21
2d76
24e5
26bd
ac96
b0b6
2d41
1db3
2ead
2069
301d
2692
a31d
277b
2e33
2168
ab7a
a8b2
284a
ae32
2545
9c84
a16a
a8d6
af8f
2cd7
ae51
ad73
2da7
acc4
3202
2c9e
249b
ad28
ac52
2e31
2dd3
a832
2a0e
2586
b02c
a032
2d01
2db9
ab07
2d87
aea0
a892
2eeb
2cd3
29c2
ab48
1c3f
2cac
2d8b
2d4b
a9cb
298a
2d48
abd4
25d9
af07
ad41
a562
26a5
2a89
27cf
2d95
301f
2e44
2dda
9ce7
2fef
aa87
2d9e
ac03
279f
ac4e
af0d
aa0c
ae9c
ac29
2eca
ab98
2813
ad3b
a6b7
ad08
2e48
1d98
991a
24cd
a4c6
9db2
2bfe
ac4d
a6f0
27b1
ad7f
9ef6
2dc3
a492
2651
2aa2
2661
ad42
223c
2a32
2721
966a
2fbd
a878
aa6a
975c
29fa
2dd0
af6c
ae6d
2b7d
254a
2ca2
1e05
a91f
a5fb
2b15
93ec
1cee
98c4
aa81
adb6
a4f9
1caf
adfd
2957
20e6
ace3
2c19
252e
a74f
2c51
2f0c
2c34
a491
ac3e
a650
ae24
2e82
aa31
2805
138b
adee
a8ac
2d71
2a01
a94c
2c48
2021
ae2b
a02e
ac34
2b27
a98b
a481
aaa1
267f
254f
29c8
2697
a5ae
ad09
2c5c
28fa
ac3a
2e1e
aaed
ac11
af85
ad51
2cef
a02b
2d18
2c9c
acaa
2c7c
2379
200b
ae4c
2a45
2fbd
22f8
2e3a
9d47
2fde
af78
2e7e
ade0
ace6
2ef1
a9a3
adc2
ad35
ac89
ab41
2c2f
adb5
2aa9
2d99
276d
306f
ad7e
2e83
a625
282b
a36e
2d57
2a23
9dba
2c94
2845
293f
312f
2156
2df2
a203
2caa
2e28
2cef
29bb
2af4
296e
2c39
2c1e
29c8
a9c5
2050
3052
af90
97b8
ab83
9fde
2f75
a132
a8e5
a31c
307e
21ee
ad3f
ac00
ae6a
ae78
a6a2
a44b
a1d3
2419
ab83
af9e
2e08
b0f2
a659
2f4d
aae8
2e9a
ad54
2c5c
9b8f
a86e
3046
2caf
9f0b
a932
2105
25d6
28a7
24a5
a99e
ab8b
a80e
ac49
a9a3
2c93
2f59
293e
add2
ad58
ac22
a945
279d
290a
abcc
aad6
a80b
a9e0
2808
a1f6
a6dd
a79a
29ba
ac5d
ac11
2cef
ab33
9eee
a88e
2b3f
ac8a
28c2
ac6a
2ce6
ac30
a5ac
203b
2103
2c11
2e86
2c18
29bc
2396
248d
2d25
ad5d
3014
2bb8
27df
ac98
ac2b
ac7f
a511
ab52
24b9
a42b
a2ec
acbd
2c36
2d0f
24f5
9fe3
2c1d
ac0c
2b9e
a3d4
973c
1cc8
a16d
a92a
2f73
2b6d
2c6f
ae65
a814
ac65
ae65
a997
2689
ac2b
ab0f
2cf6
a93e
2ae2
2c02
ad23
9ea3
ad41
a050
2ba9
28fe
a256
241b
2c55
2e76
2dd7
2ea3
2c03
1e0b
2b7c
2331
2d52
e37
2c3f
ab65
224e
ab96
9c87
a7a4
29ab
2da3
a900
289b
1d4e
26d4
2853
2e54
a8f1
2f55
a311
28a1
23d8
9f25
a632
a7d3
a48d
a860
a7d8
a8be
abd7
2a9b
29e9
aa19
af0e
aa3f
b09d
2f64
9901
2d75
ac03
268a
aef2
2e35
ae41
2806
23c3
a575
b01d
a6be
2808
abac
ae7e
a03c
ae19
2cd4
a293
3030
2b71
ae80
ad6f
ae8f
2ec9
a53e
2b90
a662
2831
2957
25a1
ab2c
25fb
ad00
afd3
2af4
a95c
aed3
aaaf
ab95
af6d
ad72
a814
2e31
2b2e
adee
2d55
2699
ac55
ae3a
a258
aa5c
a8f2
2583
2d50
303b
ad20
a842
24f0
2c4c
29bf
2e75
a28e
a4d9
ab57
95a1
23ad
aab4
26d1
10ef
305a
ab7a
2abd
ab68
ae2c
2d5c
1fac
2d3e
ab86
a4f5
288b
aa90
2c4d
aba4
2dcc
ae9c
2501
adb0
a549
ae6c
b044
2b5a
ad4b
a967
2d8d
9809
ade5
2841
ae74
28e6
a0f2
a832
a577
297e
2f2f
2c8c
2846
aa58
2f70
ae39
29ba
217e
2c23
2918
2b8c
ad81
25ba
a7ec
aa77
2d02
2bf6
923e
ad60
aabe
af03
a33c
2c34
aaf8
a980
22fe
1ce2
2a05
aa0c
298f
246b
943c
2b05
2f0f
24df
2be6
ac7d
a856
a954
2cd8
a085
a8b9
2207
ae59
aac3
ad0f
ac47
2f3b
2667
aaed
acc1
25b1
2987
29f2
27cc
2fe1
ab24
a501
ae94
29e6
2cac
2d8e
2be0
2893
2de3
2c09
1d47
2f35
2d15
a07f
2cb1
27af
a7c1
2a47
acb8
a95b
a854
255d
a9ed
2c19
a9bf
25ab
aac7
29d9
a34e
2e1c
aa2a
a93a
2bfc
2ee9
a85c
2b62
ae5a
aa94
ae8a
ac1f
ae0e
a980
2831
a9a6
ac32
a55b
2bf5
ae1c
2a85
ae65
2d9e
9d15
a925
2ba9
af72
2920
2b08
2ade
2b4f
ad66
2da8
2f68
2ea9
acf1
2ac7
a3f8
a67f
2ee8
2ac6
a8d5
2c95
aec7
a808
aae1
ab98
2a06
2e51
ab09
1d87
b170
ac7b
adda
a806
28a5
2a27
2910
2d58
a60a
2f80
a8d2
26fb
2ac7
ae2d
2e91
305c
2571
afdd
ab47
2ce2
a5b4
aa36
2316
a77b
2982
296c
2dc7
2cb4
ac1e
2fc0
a7f0
2694
2af1
17ff
2a2c
2f2e
adf1
2fbf
ad5f
9e07
246f
a0cf
2b5c
2d6a
af8f
a6e2
29fd
2876
9d38
a991
a693
aeb7
b0fb
27dd
aae3
2768
aeb1
2cc6
af8d
3144
a910
a9ec
aeca
a1eb
af54
ad97
2d29
26b0
2cbf
23d0
2cc0
283b
ab61
9f3a
2cc8
2b67
ad55
1dee
2dff
a2f6
9c28
1ce6
3171
ade1
2d68
af4d
ad96
2e61
a5c5
a157
2ef7
2d9b
ad8c
9d79
17ac
a616
24bd
2c3c
adb8
a575
2cd3
2a30
b073
2a01
affd
b0d6
aa59
aac7
a313
287a
2c15
a492
2c59
aeca
2d50
26f3
222b
a456
2743
94ee
2fc0
a191
ae34
900e
2ebe
ac97
a9ae
a94d
ad0e
265f
ae4a
2048
29ae
2b58
aca8
ad4c
a5d9
2e2a
2880
2e47
2818
a62b
aafd
a2f6
2e9e
ad08
2889
a85c
29e5
2d22
9f26
2ad7
adee
af58
ad8b
2e54
ab28
a758
2ce0
ae1e
a576
2685
2f00
a51f
b0ed
28c4
28ee
aab4
2e46
a96e
abea
1ee3
2a2f
2d1b
a70d
a662
a41b
a8ce
2b20
2d3a
222b
a2e1
242a
a3a3
ace2
1cd7
29d4
2cad
21de
aee0
acc3
ac1c
ac3c
ab9f
9b47
aca8
2da4
2e04
a03c
3061
ab38
a461
2d07
ac79
ac62
2536
2182
ac8f
29d8
af9b
2420
2c7a
ac9c
a859
a861
2ae9
a0c8
28c3
acba
a76e
28c2
a5fd
28e8
a98c
ae16
aa8e
ac00
2309
29d8
adca
abda
ae6a
2743
3030
2f78
a6b4
2d30
2f12
a8a8
2e6a
ac73
27e6
2cd5
24ea
283f
ada8
2c09
2e3a
ab8b
2d8b
2b10
28d4
a836
272b
2de0
aed9
302e
2cb5
22b0
2d0f
25f5
aa48
a696
aca8
2cf6
a85d
27ed
2c7f
255d
ace3
2c5a
285e
2ea2
aeb0
a79e
abd6
2efa
1d8f
a035
aa6d
2f07
af5d
adb2
abe6
2dea
aa49
2d33
2b9c
b06c
a2c3
2588
2e5c
2a2d
aa16
2c59
2ee0
aad8
a82c
abc9
ad38
a887
2814
2759
a8a7
ac93
252e
2b54
9ffe
ab6d
9985
2d70
24c6
2523
af6e
ac92
2def
ac01
af4d
ac15
ac03
ac68
2cde
a8e2
a1d0
2de5
2832
a8f3
2e44
a47a
2c29
ad49
a388
2a8c
ace2
a830
aeb2
1a25
a895
b021
300f
ac81
a722
2f17
2f35
a647
30bd
2dd5
29f6
3030
aa08
ac42
17b3
9d44
afd3
2754
27aa
a359
ace4
aad1
2c68
2023
ad7b
2ba7
a8fa
2d4e
1be1
b065
155b
a90f
a6ce
adb7
2af0
2dc2
2b87
a293
2625
a87b
ae79
a084
ad47
ac59
ad05
b064
a9fd
a688
2e3d
ac17
2910
28fa
a8ce
a92f
2e5c
2bb9
b012
a230
aa4e
2da5
301d
ab08
affa
1c51
a819
a766
2c4f
a81f
1cd0
2dcd
a9b4
3120
2af3
2337
a811
ae8e
249e
1e6e
2ccd
abaa
2c0e
2f58
b055
2818
2d16
2e52
29aa
1da2
a9d6
1e71
ab5c
ac73
a9d4
ad09
a83e
af88
2d4d
acff
abd2
2c90
22fb
a792
2c36
aca2
a944
aeba
24e2
ad86
acd3
a81e
a80c
ae4b
28c2
ad59
2d1e
a4c2
ac91
2e0a
991e
a83d
ab18
a8ff
2ad9
a1a5
ab14
26ae
2dd1
a891
a759
28d9
aa42
a899
2c96
ae9e
99e4
aa4a
aa72
a4c7
2b2f
2a41
2a32
27ef
ac79
2726
a8c5
2d08
ab36
ab72
2c52
2b33
2ae1
2c95
aedf
ae28
2a50
aa44
2e9b
2ca0
25a6
2b63
2a3c
2dcb
2899
3044
2da6
a977
ae93
ae38
2b9d
aef1
a540
a848
2bdf
1b16
157a
af32
a817
9f92
b041
ac58
2994
a7c5
aad3
2c79
2402
9e22
2d2d
2890
281c
aaa0
a31a
9d46
a621
ab3f
2da2
ada6
2897
aa73
a350
a6c1
2e3f
a715
205f
27b2
adda
2b22
966e
aaa0
ae4c
152c
2dfc
ad9c
a432
2804
2a93
216e
9ce3
2a69
2173
14dd
2989
291f
ad42
a7ba
260a
2dc4
ac7e
2e76
adba
afc9
a8ae
2a91
269c
ad19
a86e
2739
a77d
ac7e
a6aa
291f
a717
a9f9
9525
ad11
ac15
281f
14b8
2850
2a87
a9c0
ab62
ab61
2c74
2c68
2fdf
acad
9c33
abbd
af71
a466
a88f
ad08
244a
2edd
aab4
9e97
ac83
2cc2
3077
adb6
a9ed
2c84
ab93
2d82
aac9
25b0
aca1
ac41
2c73
afa8
a83c
2ee1
2316
2a3a
20db
9ecb
2b02
ad05
b0c6
b015
a987
21f0
a702
2ab7
ad33
ab09
283b
ac62
2a64
a927
2b44
ad56
acf2
a817
a929
9278
2db7
a55e
a83c
9d83
a78f
a0ec
a109
2f07
aa76
a804
2c7a
2369
ae8b
ac75
29d1
2cf1
2d32
30c7
2f2b
a820
ac28
2de9
af77
ad87
2bd6
aa46
a3e1
2f09
2c6a
addc
a243
2c8e
268a
a68b
2d60
a8b0
ad85
2d34
9f0e
2cd5
aa8c
2cf4
add3
aad5
b01c
9c95
a0cd
26a5
2cf9
2c01
292c
adcb
ad63
2934
abc5
2be5
ae6b
aee5
2ca5
adc8
ab23
28d5
9fd3
2b54
2b97
ac07
ad97
2d5b
2d90
ae3e
a86a
a490
aa2a
2965
ad5e
a540
a158
a615
268f
a9b2
2c3b
ac14
28c3
215e
ac24
2982
26de
a60c
2b6b
938b
2d20
2919
2e76
accb
af17
ae72
1109
9bb5
ae6b
a40d
2d72
ae40
2ee1
2ef3
ac20
a8e7
2e67
af1f
a51a
aeeb
28fc
2377
2a80
28de
2c12
abf7
2a62
aa19
9a31
2f8e
2e3c
aeb4
2406
a6ea
251a
a523
ae46
2d8e
2cbb
2c1d
a9f8
ad27
2dcd
a95e
a8cd
ae29
2ca7
28fd
ad15
2af9
2d59
adc3
24e0
20ce
2d2b
2260
2d22
ad51
2758
1c5a
1e5f
233a
ad04
2b18
21de
a817
2e55
a8fc
2c3f
a656
2994
ac05
a4a0
2773
2df5
ac1e
24e6
2c12
2915
9fba
a8d7
2936
2a1c
2cb0
a493
2dcb
a6ea
303a
26fe
ad03
26a3
a9b2
2990
2a34
2387
28be
2d6b
29d7
aae4
2f7a
2b87
2cdb
2428
ad4c
ac88
ad04
9e8a
ad95
a029
2e8c
2b98
afef
9df3
2e1d
ac3b
abdb
1665
2e33
a4f6
a3bb
a2a2
a5cc
a83f
2de6
ad1f
ac5d
acf2
ad6b
af72
a593
ad07
a845
a4cd
2f05
a5aa
2c3e
2c04
a9c7
2f2c
2e4f
ab68
2835
24f3
1ca3
2ceb
2acc
29f7
ad58
2c52
ad07
aa4c
2e35
ae98
2c5f
a8f0
a24a
ae98
a943
2d88
2093
277f
ac57
2bd7
2799
ac8b
a8c1
ad21
aef1
2e36
2e5a
a493
2e57
ad6e
2c03
a6f2
a8bf
2b47
acbc
9bea
a579
28ac
a38f
a876
27b6
9904
a974
ad92
9a2c
ad78
ace2
a8f4
ad00
2bfc
9c76
236a
a831
aa0f
a694
acec
2c3e
2968
a9d8
a922
a6f4
1c86
a80f
1f6c
2cd0
266d
ac0e
2e0a
949f
ac3f
a573
ac07
2cc2
2418
ac57
ad3c
ac76
afa5
aead
ac3d
24c6
a927
2b98
2ab8
28d1
a977
283c
2b87
a2b1
ae15
2ace
9d7f
ad20
a4ee
aa65
2c14
a142
2938
2cbc
a9e2
a4a8
2d8e
a69b
adb0
a467
aaed
ae82
1e9d
ac59
aa90
159a
a175
a740
2bc3
9a92
2c15
aaef
200e
9e01
aeb7
2ba4
ac49
2a3e
2cbe
b04e
a9c4
a1c6
2d54
a8e4
29b0
2ab8
ad5b
998b
2b09
a9fc
20a1
ae69
aca8
aba3
a66d
a3ec
a3f7
2ad6
2d78
aa90
ae7a
a94d
a591
af82
a90b
2ab4
ade9
acdb
2255
26f7
2b79
aba0
2c81
aaae
29bf
2d78
2e0b
113d
2b25
2d5b
2e07
a88a
2d3f
2cee
26cd
aef6
2ab0
ae08
2da7
ae3e
ac12
25c9
291c
2c3b
2fa4
26f3
22a5
2e1c
a88d
a88c
a218
1689
a4fa
20b5
2d00
9d03
2a61
2cbf
2cca
20a9
adc7
a357
2b0f
ad88
2a92
b02d
2b0a
adea
2823
19af
2d55
ade1
abcb
281d
2495
204a
a936
a644
aead
2d1f
a780
26e9
a69c
267b
252b
2d5a
2fd5
2d91
a884
ae02
adef
1bc1
a61d
23be
b135
2c15
272d
afb5
9e1a
aa72
9fc6
2f62
2eb6
aa01
f25
2e26
ae28
2c1f
2c2a
2e32
aa89
1d71
adbc
2c6c
2a39
2e3d
2777
a499
2e4e
a37f
2d2a
a4e2
a4be
ab77
2a9f
a086
123a
2a84
2341
2d83
ad2d
a298
223a
ac42
3081
b031
b1b6
2ad6
2e3e
ad4a
295d
adea
aac0
286d
2c9c
b11f
aeb4
accf
ae0b
aadc
a705
a5ea
2186
a683
2529
24b5
acba
2e5a
31ed
a912
2650
2e66
1a8e
a019
a946
abb1
2d7c
28ad
3047
b013
2a83
2ba9
24bf
25f9
a4eb
9d4f
1efd
28cd
235b
2dd3
1fdd
b07f
ac71
2915
28db
2bc1
2a77
2c32
ac6a
a9c9
2b8a
21e2
29a8
2d24
adaf
2bb5
ad9b
2b47
2e91
2c13
27d8
acbf
298f
2f98
aa5f
ac74
2dd2
aa2f
ad9c
2c2d
2df2
aa13
a10d
a01c
9deb
28d1
8e6e
284d
acc1
2aa0
af67
205d
acba
ae60
2afc
ab7d
2c65
2d63
a449
aced
ac5a
a331
2965
a306
a74e
2c1d
2d7c
afb1
ab68
2da1
a83e
2ca7
acde
243d
2d6b
a8c9
a638
aaec
2a8b
ab33
2b4e
2d9e
24aa
a3c9
2c36
89f8
a6da
283f
2865
a12f
2a55
9f71
21e8
2e19
a850
2f0f
a656
2d5d
a972
2d12
97bb
121c
29a5
a918
adeb
ac5f
2e91
a62d
acad
979d
2453
2b53
19d1
a59b
2de8
aa71
a590
a922
a9ce
2866
ac0b
a48d
960d
2904
ad83
2c02
9a00
ab5c
2b69
abca
a96a
2eb3
aae6
2393
9e43
2ba6
20f2
2783
98ff
2aa2
2a0b
2c5a
29ec
aac0
2858
2e1c
2f58
242e
27c8
b0cc
aa85
ad98
1f8b
a2cd
a93e
28ce
2ed7
aac1
aa77
2376
2dcd
a252
2ef7
ac86
aeb0
acf3
2b12
ab8c
2c89
a4b7
2c3a
ac17
a61c
ac48
a9f8
a57d
aff9
ab25
ad57
26fa
ad58
2d0e
2ac4
ad40
a368
acfc
9c6b
a932
2be3
aed3
ab87
a9c3
acc3
9c53
adab
2d4a
ac3c
2abd
9d4a
acef
2829
2b2d
9c22
ad09
9542
2e9e
2415
145d
2316
a7b8
2fea
286b
2c47
28a5
298d
2d52
27e1
2462
2922
2c8a
2fe3
2ce6
a173
2c62
1a66
a698
2c16
aa41
ae5c
a5dc
ae85
ab35
a497
a139
2e31
2a48
24c3
a3e9
a94c
2fdc
ab4b
2b46
ac19
2420
2e05
ab52
a940
ad0c
2da1
ad4c
279d
2f36
adea
ad49
a1e1
aced
a5a3
2961
189a
2a6c
20ea
abbc
277b
2ca0
a74e
2c91
2a32
9f86
adcf
9c93
b04c
ad89
ab40
ad08
1024
2d8c
2727
2ead
a845
a932
a88d
2ec4
a958
a5b3
b14c
ac2d
aa9e
acf3
a405
9838
af94
ab69
a404
ac79
9f1b
2ec1
a535
acb8
a5a0
ad4a
a91a
2153
a40d
308a
2b27
2bb6
21ab
aaae
29d7
abfa
9525
2afc
ab1e
2aa9
9b26
ac99
3004
a907
2af1
2c6a
ab1e
a6b1
2dc6
ae46
2317
ace8
adb5
a964
aa05
a914
2fbb
2650
add4
2e90
2f07
25a2
2676
ae29
2ca6
293a
287b
abaa
2ea1
2dcc
2fda
243f
2d68
a80e
2f0d
a456
ac6a
283f
2de0
2bd6
290d
ac7e
a8dc
2c9a
28fb
1be4
aedb
a48c
25b7
ad0e
2d95
aff0
a514
ab72
ab3c
22ad
2258
acff
2a94
3023
aac4
a840
20a6
aefe
9fd1
29a3
a26b
a922
2b1e
b09f
27bd
2971
2993
1eb6
a915
2fe3
1d1a
ad73
acea
1bf4
2bb3
20a5
9ad4
2e4c
aac8
a09d
affd
2de5
ad63
a73f
29c8
aa55
9b73
2e53
2c00
b101
2d23
a52a
30fe
a37a
2ea1
2bc2
aaf4
a2f4
30ca
2a0a
abf1
ad1a
b004
2cd4
b018
aeb5
2c91
aab5
2dc7
a0ed
ac76
ac32
ae34
1bd3
2860
1835
2911
2a77
a2e2
adf7
2def
2d52
ad59
2177
ac48
a864
9ba9
2997
2b96
aeef
aa9f
205b
269c
2af6
29c1
25f2
a35c
a547
b029
2c3e
29fb
aa6f
1cdf
ac84
a998
2af9
a9da
a14c
acc7
2e3e
a974
29d7
abc2
b01d
adbc
2800
ad56
2d45
2e34
acc8
2fe4
a891
2e63
2ac4
2508
ab6d
2d3b
21da
a9a3
2ee3
2a8f
9d1b
a978
a4ea
2a7f
a039
ac1e
253f
1855
adc0
af3b
ab79
2323
28f1
1f27
2905
2b26
ae01
2e44
abef
2dd1
9fc4
adac
ae46
1ff4
ada1
ae6a
ae4b
2977
2085
abfd
ab6e
27c8
a85e
a935
a8a0
aa0a
2f7a
a577
acd0
abed
26fc
2ca9
2d3d
a885
ad1e
a6d8
af5d
ad14
a699
23d5
2b09
2ef7
26c4
2785
a989
9da1
2c84
24bb
acee
ac08
af24
ad9d
2c22
2db7
1f44
2800
a680
acff
ae79
2711
a8a2
2d61
2536
aca8
2977
ad3a
a437
a8e3
ab10
26f3
2945
2cdb
a77a
2a1f
2ea0
2add
a8c7
abb6
2ca1
2c68
293c
2857
27f3
23bc
ae74
2b55
a84c
af44
90d9
2b4a
a542
acd8
990a
2823
2c11
9520
23a1
254b
2c0b
ae58
ae1c
2328
29fc
a38e
ad30
9d75
a95a
2cc5
a982
adb0
2ea1
99cf
ad51
2acb
ad1c
a844
2677
2c66
b06b
add8
a659
2c4c
aae6
2d18
26e5
2458
2795
1e8f
2529
2c6c
2cda
abec
28c5
268f
ab9e
9d3d
2c35
2bd6
aea5
1f91
2ae6
2cab
2db8
acf6
29e6
9c4d
2c0e
a8c8
aad9
2f83
2022
23fc
a9ab
2cf0
a80c
289b
21b7
2802
3099
2f45
aba5
2d22
aaf9
2b74
aad2
2c20
2ca2
2672
9d08
a782
af41
22bb
2306
a935
aeff
a9bb
acda
2d4e
ac36
2af4
8c42
af80
2c4c
abb0
9da7
ac7b
a68e
a4ce
a2b7
af04
abd0
aa5e
a06f
2f9b
a74d
2d4f
2b74
2c0d
ad4c
a894
aa08
ab40
a727
14f3
2040
26b4
2b08
2bed
19d2
2f6c
adc5
aa8c
a4bb
a7b3
2d47
a20a
2982
2ef2
9f35
ae5c
2d2d
2acd
a448
aac9
a9bc
acaa
a893
2065
a9c3
a7e4
2916
30a1
2be9
2b08
26c5
2efe
28d1
2d53
294d
28ff
28da
2bfe
aa2f
1c0a
21fa
2cfb
acee
30eb
2c38
2b35
2f2f
2d1c
2f8d
a0de
2e81
2e3c
291a
2e1e
ad34
2e95
292a
2e0b
2c28
26e8
9fee
29d5
2eec
98fd
b045
2ddb
2abb
adf9
aed8
a4fc
a21f
2e9c
29f6
2ec5
30e4
2b02
acc3
aade
a68d
abfd
ad17
2d9e
b174
2ebb
2901
2427
2c99
2d41
aba4
adc1
248b
291f
a5bf
a572
b07a
29d1
aabb
b021
2f7b
a07a
a7ed
2b59
a80a
29c2
281f
ac4f
a455
ad10
ae21
2878
a24b
a287
1c7b
a99f
2720
a905
2953
a49d
a7ec
a81b
a65d
2a79
2ec8
adbc
302c
2994
2b24
2d50
ae6d
aea4
2cf9
1deb
24cb
3022
2978
2ffc
ad24
947e
28d8
afdf
2429
2c7d
1926
1c9f
8252
1ec7
2587
ad4c
ae9d
a81a
a712
ad9f
ac58
290e
2e38
affc
af1b
2671
2506
2c62
af7d
2c73
a3a4
196a
9cb6
2c74
ab6f
ae37
ae34
af43
a835
ad53
aa76
9e61
a8a5
af23
ac4a
2da2
2eae
2375
2f34
2adb
ad1a
2b07
2d03
2a16
2bd5
af83
2c28
2526
3045
2fab
22e4
2d3b
155c
2864
a999
1f6a
2c65
2d50
2dcf
aeb7
2c56
ae1a
a6f5
2baf
30b2
a94e
a0ed
a40a
28fb
2927
2d47
24b8
2e17
a81c
1cea
2a82
a711
2e7b
182a
ac7d
aa42
2e56
b001
ad70
2da6
2484
273d
a5f3
ac2e
2a62
2b5b
2dfd
ab05
2bca
af99
307e
2771
2e26
2f0e
2d63
26da
2f6a
280d
2cc3
2837
a758
2f5b
a90e
a8ab
2f75
2d45
21de
2d9e
2630
2dd6
2888
ac06
a80d
ac6a
addc
a334
105b
ac4a
ac87
af7f
2cb5
2d3e
adf1
2a8f
2d71
ac80
a330
adad
a909
a814
a002
ade8
aa6c
2c12
1f82
2c49
28f2
259e
2d60
2810
2bb5
ab75
ad60
acb1
ae0b
a9e2
a782
9701
ab22
2c13
a6eb
2785
309a
a1f6
a723
2d35
ac11
acc7
a39b
1faa
2c62
aece
a4af
9f98
ac68
a71a
83b8
23f3
2f14
2a72
a65a
a992
ab6e
aeca
a831
acf6
2bbc
2e0c
acc3
ad8e
ae4e
2d9c
ace3
9f73
2c0d
2db7
2485
1885
aa13
265f
9d0a
3032
96ab
ac79
2b0d
adc9
ae5a
29a9
af85
accd
c3e
aa0e
abe8
2664
ae15
2637
2a38
2d50
ac0
2700
ac86
2c21
97df
2e50
2c27
2e01
adf6
2a38
219f
2a1d
ad91
29e2
2c2f
23dd
2c27
ad70
a6be
ad83
a5d3
25ee
2a87
a0c8
2c9f
2998
2cae
265f
a86d
2b72
2cf7
acef
a48f
2801
2ee1
2cec
ad0e
2d29
addc
29d0
292d
aafa
2e78
ac45
ae46
1e74
ab98
1d5f
29f8
a9f4
2b6b
2bb7
2d41
2894
2e3e
23f8
add4
1dbe
aa4a
2e39
acd2
1be3
9e60
ad40
a4d7
2d52
a427
a853
ab4c
ad3a
a937
aaf9
300d
21f9
2cd3
2771
1b31
8f6f
ad8a
2c3f
9a3e
ab4e
a8dd
29fd
2d82
291b
a4e4
2d37
a463
2e17
2066
2c0e
aeec
a1f4
2aba
2bf6
a131
2a49
2cc2
285d
2b10
2ed2
2564
a32d
283c
2aa3
ad4e
ab82
aca9
2990
a552
2d68
2e57
22ac
1f2e
2eb8
2167
2462
a4e2
9ed1
acb5
ace8
16d8
2a78
93cd
2b3b
ada3
a883
279f
2228
2919
ad25
a981
280a
9a42
2476
2bb9
2a97
2c80
2a58
232a
ac15
a6ba
ace3
2c51
27f5
9f87
2956
aab8
26a5
2c95
a5eb
a925
ac3b
28df
ab30
2cd9
2ce9
ad01
adf8
268a
ae24
2b55
aa83
1e0b
ace1
adec
2a68
ab72
2488
a8b0
28f0
9289
201d
2f61
a3ef
a5f1
27fc
acd4
a8ac
2974
2a31
aab6
a863
2d61
a6c7
ae1a
a9c7
2e64
29ea
ae12
ae88
2ae2
1645
250a
2186
281d
a4a8
2ed1
af64
2894
2f1a
2c8f
2dda
af2f
24ff
a9df
ab19
294d
adfa
a9e3
ad5d
2948
2590
1e2c
aaee
2c29
2356
308d
28f0
acf4
20a5
a503
afe6
9ace
2aab
2f21
2acc
2d97
ae62
a15a
2a36
2b1a
add8
a76d
1791
2b97
2f59
24fe
ab7f
2695
a770
2c8a
29e0
2a7c
a91a
2f89
27fc
a0d0
aa43
ac85
a607
2846
a65f
3023
aecb
2d5b
a94e
22aa
ac7e
aba3
b084
ab96
2d53
ab27
afa9
29f8
26d4
aecc
adbc
1bfd
2af8
2fa9
2a53
2cb4
aec2
ae47
2d13
a8ff
2ad0
2d9a
2d9c
aa44
2841
ab05
abb8
1ccf
a4c2
aca1
2836
a918
285e
a5fc
ad50
b094
10cf
af25
a96d
aa22
ab92
22c4
a1e3
2928
2ca7
2ab6
9ec6
224e
2a8d
add4
a866
232c
2d1f
a68c
29e2
2d66
aa40
2d4c
2ec4
2e85
2ed6
a6dd
288a
2841
a976
2d54
a57a
a8c9
a63a
ac48
9dd4
a2de
30b2
2ad8
ab06
b04b
addf
ad7b
a440
294a
ad41
a509
ac17
a9cc
28e0
aae4
9d69
2ad7
ac65
2b04
ace2
b042
24a9
ae95
2aef
a9e4
2b01
22b3
2816
20cd
adc4
aa9b
ac90
a19c
ac4b
aad7
2c07
ab9a
2975
aa76
2c5c
1cb9
ad83
a82b
292c
290e
aaab
a627
2904
28cc
2b63
2bc3
a8f0
2856
2e3f
2097
2ea0
23ae
231e
aa3d
257b
2ebc
af15
2c67
ac6c
a650
aa77
293c
2950
a79b
2faa
2c40
2264
2aae
2c15
aabb
9e0d
2b5a
ac5c
2988
acc2
ae5e
1e32
2b90
245e
a770
2d5f
310d
24aa
9bb0
2e4c
a9c4
ac55
2ab9
29a0
ad1c
a30a
acb1
2c13
2a98
a54b
ac1b
9d0b
9f8d
a860
a795
1b66
aea7
2e73
ab19
a87c
a040
aabc
a8ab
2a0f
2c1d
a9c4
2f8d
acbb
2d4a
ad85
2634
a611
a94c
26b8
2db6
ab26
1a10
2a9e
217b
2931
28cd
ab03
9441
ae3c
2487
2c42
2aa4
2d1a
2c55
2ce7
2402
2a5b
2de7
2977
2898
9ee2
9eec
a0e0
2c74
a954
2ccb
2b41
9ebd
a853
2a74
2414
2738
ab8f
a02d
adbe
1e0c
26f9
ab44
26fc
2008
aa63
2233
2e18
2cb3
2d6f
2481
2c34
ad9e
27ae
a9b0
a902
2b32
2a0c
2af4
ad4f
28e9
2b33
984b
a920
2220
a0a3
ad8a
2afa
2d88
2c1b
2c84
ad85
2f09
2e68
aa44
2888
a9da
a2aa
ac1a
a815
292a
adad
28ee
2cae
2699
28c3
2dc4
2c47
a3d6
2e19
2cab
2948
2423
247b
aa4f
2b32
a709
257c
2ca6
a39d
af24
aec6
2ad1
1be9
a4e1
2deb
2ea0
2d6c
ad11
1e15
2bd1
2854
ad80
2c58
2207
ac75
2c32
2abd
1aaf
2f66
acbe
3092
2f1b
2a09
2574
a928
28ea
ad89
2a82
9d2f
286a
a372
a831
af83
3043
2b16
28ce
a252
2ca6
ade5
af65
2bdb
a83c
2fe6
2957
ad45
2c14
ad99
3043
a7b9
2e9b
ac94
24d0
2291
2c1c
2ea8
2c10
2d08
305c
a4e2
aa6d
ada5
ae0e
ac72
ad10
a49b
a985
2ab3
b10
2f65
ab65
2ec6
ab4c
af46
9d0e
9a14
a8a3
2c01
abd8
a9e8
af13
26f0
2e02
28bf
a8a5
2e3d
ae7e
a127
aa46
30d4
2d39
acbe
2de9
aed7
2b32
2471
2b35
20c1
2c50
a644
2a7c
ae21
a461
286c
af93
aa6a
30dc
a453
ac6d
2e5d
287d
ac90
316e
adf9
aa01
9a43
ae46
2d1e
2de8
ad90
2e74
a960
ac6f
af14
29ae
ad60
b022
2fbe
2618
2d09
298b
2dec
aec6
b004
af7f
afd1
ab9d
290c
2d31
a84c
ad8e
a496
a053
abb7
acb9
9d20
ae17
ab33
a648
a97b
273c
2d40
a420
a893
ab18
2e1b
3048
2bfe
2a03
adea
2cdb
ac1b
a49d
a873
95e0
2b94
a4a0
2cce
ad8c
2b56
2da0
a480
a2a2
92f3
a105
294c
280f
ac94
ae57
291b
aec0
a987
a64d
aa47
abfe
afaf
ad76
a814
24e4
30f8
a62c
ae36
2d54
a775
2c93
a3d5
2f69
ad26
ac52
a990
a8c1
2b2e
add6
28b2
a900
ab8e
a6cb
2d78
2d54
2be6
2824
a94c
9d23
2cc5
acaa
a966
a611
2bdb
ada5
2b11
2aa6
2c43
aca3
2be0
9faa
ad4a
130c
abba
27f1
a5b3
a76a
29f4
9d3b
a210
2ce9
ab01
2c40
28c9
af30
a87f
2cd8
18e2
2bfb
a85c
28de
a30b
2855
2efa
ad09
2e45
2b28
2ca2
20bc
2960
a8eb
24de
9e60
1f90
ab21
2cad
a415
2f4a
2daa
1b04
ad3a
1f56
ab95
a941
2da7
2c2b
2c95
1569
2bb5
2808
a55e
ab4d
271b
ad79
2908
2f75
b0bd
ab6d
a0b0
2a00
aaf1
ad54
ac4a
ae44
2993
afc7
ad04
2e3a
270f
acbd
27a0
2ce5
ad37
27d4
2832
aa1d
3047
ae04
2298
ac32
1ba5
2cfd
28e4
ad5b
ac25
2d73
234e
ae06
2cc8
ad23
aeb2
2c77
ae4f
226e
aad9
2ca6
16f0
abde
afc1
29fb
ad86
964d
ae54
2cdc
a9a5
2f2b
2e98
2d65
2980
2c28
2a12
20f1
2820
2d39
26ec
9cdf
b016
2bee
a573
abd1
1e3d
ad8a
1ca4
2d4c
2b55
2bfe
9ca6
28b2
22a4
2cbd
aadf
aa85
289d
a7ae
ace9
acac
29db
ace2
aa8e
2865
21b4
a7d7
245f
2914
af96
aec9
2e86
2e29
2cf0
aa23
a89a
2d69
a23e
2f51
a1b1
2ee4
26b2
1a9
27e4
2281
ad7b
2e58
9e09
2d5b
2ee1
2dff
2c9f
2846
2cc0
291c
a871
aaed
2f33
2d91
281b
a57b
ac52
adfc
2b4f
a533
ae62
ac78
2b48
af95
2b4c
2c95
20d3
ab43
2a70
2223
2a23
2600
27dc
aa23
ac38
ac03
a8d2
a928
242f
aa3b
a67b
2bd8
a9ff
2d92
a40a
2dfa
291b
23f6
b024
a894
af1f
2732
a78b
abf2
a840
a972
a651
1cb1
1d5c
ad2e
aa98
2aad
a9f7
23cc
aba4
24f9
2c9e
ac8f
a8c4
a8d8
a408
a4f3
ac75
a788
a856
2751
2521
acf7
296a
2e57
9968
ae5a
2a57
a4f0
a992
a815
a990
ac72
ace0
27f5
22ae
20a6
2d45
a997
2c37
ac39
2847
ad17
a7cf
20c8
2a8d
a9a6
1fc7
28fc
ac3d
ab13
2d15
28b7
aa9e
18ca
286b
1d87
ade8
ad0c
278d
a99c
2cba
a662
2ce9
a43d
29b5
ac4e
1eb0
1abe
2c43
2a2b
a749
a8b1
1f15
2a23
ad3e
ad28
2cb7
2dd5
2e1c
a552
a812
a5ad
2d34
2e57
ad0d
2982
2c36
ae49
a83f
a808
2a76
2155
ae15
abc2
ad64
290e
ace2
2814
a65a
294a
2efe
ad8c
a924
a335
a398
296b
2d51
a9b1
a4e8
2daa
a156
a872
accd
add4
285a
2bc7
aaf0
2bac
a81a
2d6f
a86e
2dda
a22a
ad84
aa6b
accb
ae39
a70e
a86b
2be0
2c6e
26e1
2de0
a45d
29c2
a7ec
ac63
2622
a4fd
a286
3184
2ddb
ad73
aee7
2ec7
a98f
a818
2d31
2fc4
a988
a8be
2b92
acfd
ace5
11b4
af5f
2c72
1cc9
2a33
b011
2e3c
2da2
2b7a
1e0a
31ed
afe9
2c56
28cf
af3b
2fe1
a54e
20ff
a63d
2930
a902
abf5
a0a3
2e38
9e8a
3027
b095
a84f
236c
2a03
ab50
aa4a
aa36
2f8e
28ad
2517
2ed1
2c69
2c9c
2e21
27b2
ae00
ae2e
a5dd
ae99
280e
ab50
aeee
ab4a
a3bb
aae3
b093
a825
acbf
98ab
9837
177e
1929
acb8
2bbe
b0bd
29de
a88d
28dc
ac50
1c3d
a13c
2a70
ab1f
2d53
b0b5
2fbc
ac5a
ab2b
188d
ad22
299e
ad1f
9d28
2acd
b127
2b8d
224d
269b
aed3
2dc7
2cf3
ae29
a622
ab51
aa32
ac0f
a2bc
afab
8c12
2bc6
a81d
2f76
b099
a94d
31d3
a783
287c
ad8d
aa0d
ac99
a6d5
2a44
af76
acb7
9d1a
a6dd
af12
a413
3018
b08a
25bb
9dcb
1a2f
170c
b0c9
af46
ac07
acad
970b
2d83
2954
2711
abdd
2d3d
2f6f
adf8
2438
1fad
ad7d
24b9
a577
2211
2d87
268f
2a2a
2873
af11
30db
aa8c
ab0c
af5b
a8d7
2da0
a502
afdc
2992
3034
300e
29b8
2ffb
9d5e
a991
ab79
2145
b043
9dca
ab6b
2b79
29ce
ae6b
a3f8
acd2
ad21
28df
2a71
b0a6
3167
a3cb
29f6
ab4e
ad87
ad29
1d4b
a9c3
2d63
aa85
f69
2fdf
a855
9fc6
2d17
ac7e
a5a3
a818
ae81
2da0
ac6d
2967
aa98
2c11
aa68
a13b
2944
2d86
2823
24c2
a30c
af65
a5e7
2d29
a939
a98f
ac7e
a9a1
2772
2c25
2c43
acab
2a82
b1da
ae13
2c73
a0a5
a9bc
a386
2ab2
a0eb
29de
2de3
2c1c
2de4
a1f6
2803
a8a7
1c0e
219c
b0f8
266c
ab77
b00b
2d21
29d7
24bb
a923
30f7
2e6b
affc
9df1
220b
af78
29b0
2e31
ae67
2ea5
26c7
aed1
3056
a709
2905
2740
2c88
2db0
2ced
270b
acbb
a4d8
afbe
1c72
23f0
adad
9ea6
ad63
277a
9074
a9c4
ac83
272c
28c4
2caa
aff7
a922
aefa
ad87
2ce9
a9c8
2ed1
2833
2cd1
2dcd
2d27
22c6
abbc
a689
a85c
aaff
2df3
2d6c
2da7
a09f
aecb
a0e5
22a2
2af3
197f
ac99
29c9
2ec9
ac8d
aef7
278b
abdf
a8ab
ab44
a9af
2d3b
1727
a88d
ae91
ac83
a334
2d9a
b003
ae23
2d6b
b0ac
a1fd
af3d
a4f8
a82a
a1ae
ae20
28af
a4b7
20d8
23e3
a0e8
9496
2fc6
b0ef
319b
286f
a9fa
a051
2ee1
a9be
2d6d
adf4
2b7e
b10a
a743
b0a4
ac64
2cbb
2ac0
aa6d
ac10
2b59
2f52
2ae4
28ec
2892
2cae
aee3
2c7c
ae23
aa85
2a51
aa13
b049
a11b
aead
a517
abb5
ae35
b150
ab09
283c
2f3c
a103
ae81
a343
2e78
ad0e
2f30
abab
2aa1
2d1e
216d
abb6
2e14
2f9b
3072
a635
a378
aee2
309a
2c21
ab39
a68b
2957
2aac
2ebc
2a95
a6e4
20e4
2928
ac6c
a598
ad3b
30ed
2965
a343
2d79
2c88
2cf1
2c90
2b84
a534
2993
2f0d
a5d1
adf0
1da9
1f48
ac89
1d5c
a926
2016
2979
2420
ae34
2814
ad28
a754
a848
a5eb
a93f
29d8
af58
2db4
2861
a950
ad20
2c57
30aa
a88a
a838
acda
2763
a6f2
2f5e
b0a1
ad08
2d0f
aab3
ac47
9edd
2927
ad30
2c1a
286c
2e67
2884
2b54
2498
2d94
a5f6
2c95
ad5b
246a
acc8
2d52
2724
2a20
2bee
adca
af04
2415
ada4
abbc
a8c9
aaf0
10c9
ac0b
307c
2d13
a90d
237b
2403
ac5d
2a7d
2cbe
2dbe
aa21
2c2a
25f6
ac6e
ae0c
ac3b
aed1
a571
2403
a93b
14c6
adba
2270
a2c7
2735
2acc
2d06
26bc
aa87
244b
99bf
adfe
2e2d
2dec
2b33
2dc7
216e
a4f4
2c5c
280b
2b60
281a
a544
2c74
ad13
ae3e
2e6e
a76b
ada7
ad10
aaae
29a5
2899
288c
ac84
9e88
2df4
24ad
2c3b
aaa3
accd
1fd3
aba1
2d0b
a86d
ad8e
2cd5
2c66
a8f5
9e53
aec2
9ae1
acd9
1850
aab4
2434
2bdb
2c6b
a442
1c82
a5d8
ae9c
ad26
ad49
abdd
a922
2919
aa3a
2cb7
a845
2ea3
2b2b
2986
2e4a
22aa
a1d7
ae85
a6e6
2eab
abb3
aa73
2a49
29cd
25e2
abd9
2e3e
2136
ab17
9ffb
10f2
acd6
20f4
2e4d
2dde
2b09
a87d
afad
24cf
a95e
2ce7
a857
a97b
ab61
1d95
ac88
2c8f
a550
291d
9d79
aa8d
29b6
2b06
2be7
aeaa
2c3f
29d4
9c2f
a69f
afbf
2ab3
aa6a
2754
9e88
2996
294d
2c66
af00
2c86
a41f
27f2
296f
2c9c
2615
a87d
a44b
9a86
2505
2d5b
ac63
abd9
2c22
a93d
ae58
aabb
2ae1
ab66
ae85
2d68
ad56
ad9a
ab06
2f0d
a89e
215a
2e8d
ad92
a24d
ac14
2b51
2871
a431
2b85
ae8c
29b7
286e
2d41
acd7
adc9
1fbb
ad84
2ca4
aa68
25cb
acfc
aca3
11fa
ad6e
ac46
22b4
a517
a1ed
2e7b
2882
2ced
29e0
28a6
aca0
24c0
2cf5
ae94
2aae
a57b
1b77
2a26
ad6d
2c3d
ade8
2c37
2cc0
aed3
a658
2b06
ae8a
a22a
1dca
2612
2bf8
1dcb
2ade
2964
aaca
a486
aba0
b0ea
a88a
a4ea
a848
9bc4
2bf3
1327
ac74
ab09
2e0c
2062
aaaa
2a8c
acd3
2c67
2c91
aa84
9af1
a9a9
adaf
a9b0
ac96
2cad
b049
aa5c
2ae8
2c22
ab2d
249b
2c14
29b3
2e72
ad1a
276f
1d50
ae56
a9b6
2981
a6f6
a24d
2d9f
adf1
2e5e
2ee7
ad29
2087
addb
2d1d
ac78
a6d9
a9ec
2c2f
2e48
2f8b
2cb1
a955
9f2a
aec9
2544
2d44
ac7a
278b
27d8
aa0f
b000
2df4
ab47
22ea
20d7
ac67
29dd
2814
239c
a9d1
2ade
29ac
a829
2d84
2eeb
2ac5
2948
aa44
276f
ae8d
a133
aa87
aeb1
a95f
1e00
ab56
aac8
aea9
a685
2d58
aa45
2c94
2ceb
30a6
a209
9806
2ce5
2df5
2811
2d93
2f7b
2632
2d13
2abf
2ccf
2c66
2909
a97a
2f2d
2dc2
aa0e
2f7a
2a19
2c53
b017
2c5e
96b3
2c3e
2428
295b
2101
2ae1
2dac
a2b7
25d5
1c26
1651
a7a5
af40
226d
1c24
29c7
b0a4
9a12
acde
1fce
a6b0
305e
24e0
3098
a923
aa8b
aced
ac2a
a894
aab1
2e7e
a9cc
2bd8
1e85
2eae
2b5c
2dfe
2193
a414
8e7e
27bb
acd6
a6e6
ab9c
2c8f
aa64
a009
2c93
add4
b0a3
2ee4
269c
af54
3182
b025
a992
ae48
a43c
a889
aea7
acf8
acb8
add8
acb9
aae7
2faf
2aaa
2dfa
2d1a
2f40
adeb
2290
a442
2d64
a18e
a282
a89d
28f5
a59f
a6b2
ae21
b058
ad40
28e6
2b01
a782
237a
26f2
a889
27e1
2c02
ad60
aae5
2cdc
2216
adbe
2c7d
a989
ae6f
2c24
2868
2e74
aca6
a9e7
2d58
2ca2
2e2f
ac31
27ad
ab34
2d9b
ad1d
a882
ae9e
2cbb
2974
a62d
27bc
255d
239a
2c05
ab58
2816
a870
a6a2
aa4c
a4f4
266b
b0ec
ae40
29ba
aab7
2f9b
2408
a6d9
ae47
2dfa
192a
2d77
a5bd
afe6
aaa1
2074
2591
27e2
995a
a977
a9d9
aee5
9b7a
ac36
ad60
2d2b
1b97
ac1b
a8d3
2700
2b3b
2730
ab4c
29ba
ab15
2b41
2e26
a8ef
2437
acdf
a393
2a76
a9b9
2e0d
2c75
29dc
ac7d
2d61
a9e9
2567
25ac
25be
a2d1
a88c
ab4c
ae67
2b36
30c7
2af0
2e4c
2ec2
2892
ad3d
a4ec
2c49
2a25
2dff
2c31
ad5c
a817
ab92
290e
a63d
a928
2d63
27c0
29e8
ab99
24f7
2c5a
2cc4
a5ce
2b94
23aa
243b
2c24
a95c
a76d
2e1b
2e0b
2c20
28df
265c
afad
af6d
28ff
1952
2b0d
aa1b
a15c
adbe
a306
ad1f
9f9a
2a21
2d7f
240e
3081
2497
ab72
25d9
99f0
a6da
aeab
a825
aa56
a519
2ae3
adfb
95ad
a1c0
a80c
acfb
a056
3016
2fd9
2c0f
24e2
ad8b
a815
2b81
2cea
ae4c
adde
ac4d
aca8
1613
1154
aa09
2cec
ac6c
adff
acd8
26e9
a76d
a9a9
aca1
aeb4
221b
ae22
2c81
2c71
aa40
aae5
2d33
af36
adba
27ad
a556
ab69
a8ad
aca6
2b2a
ad03
ac5c
ac3e
ad4c
a9f1
222d
2f19
2c95
a875
27c2
2f1a
2b8f
a2f1
a946
2426
2d43
a101
a038
1cde
abf6
28f2
28ea
a837
ac98
aa7f
a909
2865
23d3
ae2e
2047
a898
2d60
2742
9fde
2c2d
9870
2870
2ba4
2cd0
222e
2e31
ac6f
2192
a9b5
2a59
2929
2c90
ae04
2c02
2d48
2e39
24d2
2d82
af85
14ca
2232
2f27
a5f0
aefe
22cb
ac1d
a59d
2bb9
92a6
2edd
9cbd
a316
a442
ace6
2cbd
1fa9
a974
ad9d
adf4
2a78
a835
2e59
a15e
2c7c
2e8e
a653
2d29
22e0
2790
2b87
9ebe
acdd
25df
ac3e
a813
281c
a4e1
a92d
2c7f
9a61
a9f0
aaa7
28d6
aca0
ad68
aab4
a530
18df
21ff
a434
b004
af48
a831
a526
249c
a9a1
2855
1fd8
a085
ab75
a097
aa7f
a195
2dd7
2eb9
28d9
ab50
2a4d
ae28
2ded
2af3
2d28
1f39
a610
2dd9
2b8e
1f5c
a8ba
2da7
2d1a
2867
2cd2
26e4
2622
25c4
3034
a640
2ce1
2bd2
ae5b
2c11
2aea
2b1a
1ae8
aab0
a825
2c0f
2e60
2903
22c6
2845
2164
abb8
28fe
1425
2c19
a92e
a58f
a0bb
aae0
2d08
246d
abce
af0d
a589
21a0
ac32
adca
1f3e
2429
adbe
a4e5
b009
2dd7
ab7d
2b7c
280a
9fbb
2d5d
2c8e
2a1d
a270
aebf
1d1e
2cd0
28f3
2b47
2dc4
2f87
a897
a9a9
2b31
aa18
a34d
ad4e
2990
2fc6
a816
adcd
2c0b
9901
2ec9
adfc
305b
b07c
a4cb
285b
ac44
2c4c
2a67
aa72
a7bc
2cc3
a9b4
af36
94dd
aba1
a289
2f07
a993
a964
ade7
2e77
a713
ab28
24b7
2941
2e99
a56f
298f
aa8e
ac0b
157a
21ab
a8c7
254e
2cb7
1ee4
1970
a8d3
2d14
2177
2e7a
2a39
21f6
2edb
2991
af12
a7f6
9eae
2cae
2531
227c
b06f
a7df
2a9e
2c77
a8aa
ab78
2a11
2a1d
2809
af9b
9c35
2844
a86c
a8e7
9a49
2ca6
a803
a882
accb
a532
ae12
1c6e
3062
ac53
aeaa
a72c
a73c
256e
2a3a
a81d
a48d
9e63
2c08
a7a9
2ccc
2ce4
a599
aeef
a861
a80c
2971
9877
a52b
2847
267e
a6a8
ac7a
2bb8
a603
1833
28a3
2e5c
2cb5
25e9
28d4
a43d
2f6b
2c80
2b06
2db2
a9ae
a2af
aa73
2c9c
2679
ace9
2b02
a758
a93d
aeb8
a8d6
abe7
aa8e
2f89
a53d
2a12
ab9e
2e49
abd0
a853
ac6e
9eb9
2510
2b10
a1fb
2ced
26b1
2db7
2ac6
abae
231e
294c
afbc
ad9d
2cee
afa9
ad0e
2113
2ca5
a9dc
aaf3
2902
2b6b
2c52
abaa
2d1d
a861
a905
a5e1
9cdf
24f9
2e3f
2b33
27b0
301d
2baf
2e27
15c7
2a79
2935
294f
2f99
1a3d
22fb
a404
2904
a313
a766
ac39
2ac3
2a2d
a9d5
2afd
2de0
20a1
2624
acd2
1b6b
2323
29d0
2d7b
2dd3
a560
2c96
a4e6
2800
a95d
954c
20a7
a07a
a3a0
16c9
2ec1
2b3f
a1f5
af72
2cc4
add5
a432
a6bb
2b49
2c81
ac19
a976
2a09
2dee
b0af
ae51
28f8
af18
2bdf
2f19
ad00
a404
2b32
a446
2922
2639
a8f5
ac9f
b131
29cc
2b37
ad7d
a832
a501
b01a
ace3
2fb3
2e88
ab2a
a563
a8fd
8237
a87e
2c0b
2db2
2912
ac03
2efa
2a28
2c7e
29c5
a9f7
25c3
ac7b
aaaa
9829
a450
a915
afaf
2a1f
2ba9
abe5
2d5c
3048
a811
b0da
234b
a10a
28aa
9f9c
2c1a
2a88
1c39
1f1b
a843
ac7f
aca4
2031
2ac9
b06f
2f34
ade0
a5c4
9f89
291c
2b0f
a073
2c91
2e2a
2a6c
2682
2bd1
2c55
12a8
a6c5
1d9a
a887
afb2
2343
2299
22a7
2d79
2989
ad04
adbd
2085
aecc
abe8
abc6
2aa0
a670
1d0e
aebb
aca9
278e
201b
2e74
2da1
a84f
add2
a92c
2f2b
2ca9
3107
2e2e
1b36
2934
ad3d
3031
2d18
a542
9dba
a88a
2dd9
b269
b006
26b7
a8cc
b005
aa95
2c98
a858
2d6a
2982
2e53
250f
3053
2745
b044
aafb
b018
aae5
1810
ae06
a63a
2c40
aa41
aef4
2d3b
a92b
26ea
2945
2a10
a713
2ead
2d27
a7d4
a924
af4d
ade6
2d3e
afc8
2c7c
a3ee
2b5d
2e4b
2990
ac45
b05e
ac9e
24ba
2435
a22f
2fdb
a8c9
2457
2213
2f23
a8db
ae3b
2dcd
9c35
a836
a669
ae6a
2ba2
ab79
a497
2b98
ad1f
2ab0
2196
8410
a905
2d67
9e05
2def
2ba9
2d72
2f97
ada4
2b0d
abfa
303c
2cca
1cb9
26b9
b145
295d
230e
a84b
2c58
a96b
23a9
21e4
9c66
23ac
2d44
28e4
ad39
26da
1dd5
2c34
a921
2cbf
b0d4
a13b
abc1
2b2f
a6f0
9b6d
253d
28c6
ad78
ad27
2c91
ae65
21b1
abf3
2d27
aae0
2465
256b
aa8a
ac15
ad71
2af6
2812
ae00
28b5
b043
ad40
2468
27a1
ad13
ac41
acc1
27a2
aaec
2ec0
2906
9eb9
aa44
289f
ad19
2cdb
adae
a88b
2b8f
2d61
28b1
ae22
a4a6
a95c
a3d3
a917
2910
a800
2ad3
2bc6
acf9
2b99
ab0b
28a1
25d9
2e09
2a42
a909
ad45
aca0
2b93
2c32
ad07
2799
a382
a86c
acfd
aa02
a89d
a9d2
a842
ab36
a607
ad51
ad30
a0ed
9fa3
ade2
2c89
aaef
acb2
a186
1c06
241e
ac9f
2536
2f3b
291a
2c2d
2c66
ac0d
a8ec
ae25
aabc
2d00
2e38
2ad9
a884
ac5d
9e75
a963
a77c
2457
e4e
2d9a
a06a
2c37
2533
268b
a18d
a950
a881
1bf1
adf8
28c9
2b7f
2d93
2c02
9cd2
2cb8
2c8e
97be
2e8a
8efc
a951
2fa4
2875
a513
2b75
27f9
2fc7
afc8
aa09
a6c7
2e7d
2ef2
2c35
a9ed
2d68
2ceb
ad83
a9d3
a1b9
279a
28e3
2c88
abb8
a5ef
ad45
27d8
2ce4
1515
a8ca
2cc0
223f
2d73
2501
1d14
20b3
adf4
aee7
adba
2634
2c99
9ee8
b0c1
aa29
acb0
224f
ac7b
2c46
aeda
2e1f
aeb3
2503
af02
9ae5
acda
a124
2414
3007
2c7b
ab0e
ab23
2a75
248e
ae41
28c8
956a
2b59
ab34
a4c8
2960
22e0
2ec1
abf7
8f98
1539
2ed2
af4d
9bfa
2c7f
a80a
2e13
a60e
2d4f
9cc3
2146
24f5
ad46
2c3d
2f77
24ae
adf9
24db
2e49
2ac7
ad89
b05e
2a3d
adaa
152e
2eae
260a
a7d0
2dfa
acaf
302b
2857
2c66
2fbe
ad17
a71b
2b6c
229a
2b31
ab88
a002
aca1
9be4
ad00
980a
acaa
30a3
aa7c
a516
9f49
2973
b104
add3
abaa
2c68
a72e
a640
2a93
acde
24be
2f76
2556
2d6b
2899
aeac
ac24
2e82
2edf
2de9
ab98
a925
3034
aa7c
2291
a54d
a93c
a6c9
2045
afa3
221c
ab0e
2d0a
3043
29fe
2c52
b069
2e7d
2a98
2b5d
aedf
ad53
2b5b
ac47
2bff
a9dd
2b1e
2a8e
2e8f
a8f6
2c2a
2541
2718
a109
b091
9ade
2d4a
aef0
acb5
3020
2909
28c1
2eeb
2a96
a09e
1dfe
a590
2c2e
9f26
23fd
2fb5
2dac
aede
2686
ac2c
26cb
2e4a
240a
2ce8
291d
a9ac
2c0a
28f2
aa36
ad59
af9f
2a0c
287b
ab51
ad11
a83f
2c59
2ad0
1659
a1e4
2d47
a415
30ad
a99d
2f29
2925
af48
2c4b
ad90
a83d
a5d6
285b
27ea
aed9
a201
2a7d
acdc
2d3b
2c8c
aec4
1f6b
b045
a97a
2b24
2e14
ae88
1fb7
ac33
28f1
a880
1f57
b04f
2c6b
af14
2ac2
229b
ac34
2cd0
ab69
afa2
2f39
a9db
9e6e
ad15
af7a
a8a7
abaa
ab16
ad81
2c6f
2cd0
2adc
addf
24c7
ad44
2789
a2e4
aebb
aa6e
192c
ac8a
212a
adce
a108
2682
ad65
2f8b
aecf
2731
2d7b
2903
ab84
9536
28af
a274
afcf
912e
29c7
2fb6
a9f6
2279
acdf
2c95
ad64
2d2f
a8e0
2d93
a2af
2bfe
a8d8
ae14
ac2b
a48b
2d0f
a307
2ea8
933f
2cf1
9c9c
a9ff
aa46
254a
a437
ab4c
aec9
28f3
a4e2
2a9a
acff
a6b1
1a98
ad61
aa2a
2903
301d
9877
2a07
ad7e
2ae4
a82d
2dd9
2d1a
25dd
2111
adbc
a813
2f03
21ea
ad83
a840
ad64
aa5d
a9fd
2b29
ac96
1894
26d8
2c1a
aca0
a0b4
2b6a
2766
9c8a
abbd
a013
aae2
ad0a
2489
adf0
1ceb
2ba6
a27d
acce
a880
22a2
2d1c
2b2b
3036
9cdd
ab6a
ac45
aad8
a239
a859
ad6a
a948
af0e
2a73
2e83
a0ad
ac24
2fee
9c5e
2808
adcb
2d0c
2d69
27d8
a84a
2b4a
af0f
a23e
b042
2ce8
2904
2507
ab23
2d5b
a23b
aedc
a676
ace1
1dd9
2cf6
aff2
aad7
16e8
2f5f
29d0
a699
af48
2dcd
ad30
2904
adbb
1ee6
a7e4
a68b
2fc4
2a15
acf3
9d8b
af68
ac5c
2e25
2917
2cf7
9fb1
22c4
2ba0
ac13
aa01
ac4f
2c0f
2d0a
1c53
15b1
2c2c
2a5f
a29
ab0f
a741
a328
acd4
2744
9d81
2e7b
2cd9
284b
2b46
a1db
aeb6
a253
ad30
add6
ad96
a0ff
a89a
adf6
28c5
a8b8
a509
22ab
a7cd
2d8b
a6e1
a0fa
2a31
280d
b002
a89d
29c6
2beb
2a67
a8c3
2872
a839
94c7
2867
a894
2bfe
2981
2d79
b002
adfa
2b2d
2871
adda
a3a5
b09c
a932
aadd
27f4
2837
23c3
acdd
adcd
2f79
28fc
af12
acd4
a5c9
ada6
9c46
2693
239f
244a
2a93
ab4a
282d
a97b
28b0
b0bc
28de
2f6d
adbc
2d80
a894
2c7c
29e5
ab3a
ae92
9f27
2f5e
30f4
9aed
ae43
a005
a9e0
a0a1
20ff
2802
20c4
a578
2fa7
2a50
292e
aee0
3010
28c0
2335
2894
aa3c
aa37
a5ea
a9fa
af8f
ae7e
2e1c
1da5
2c2b
2c6e
2c95
ac48
25be
ab69
2a49
1eef
a164
eba
adef
acfd
2f8c
adc5
2af2
29b6
ac12
2de5
a7fc
2e78
24f1
a6e1
2cfb
2f5c
2913
ab67
29eb
ac21
2e16
a962
abc4
a941
2b13
a8b9
abfb
2d08
29b9
a5ec
2836
2e1f
24ad
2c5b
256d
a552
2935
ac88
ae7a
2a2a
2e44
2c33
a7a7
ac07
1e52
a7c0
9963
2ec2
2d24
a959
29bb
2cc8
ad18
ad13
ac85
aa67
a61b
2d2b
acc1
2461
23ff
ade5
ac05
9e45
a90f
ae59
ae24
2e28
aafc
a8e3
adcc
a075
abef
3046
afdc
ae06
2403
aadd
246f
b065
a4b7
2cfb
abac
27f2
a836
a4d5
a885
95e5
a8ff
2c65
27ce
ad82
a60c
a8cf
ab23
af23
1c27
9d71
a92a
2cd6
2b4b
a208
2570
2c44
2991
2e63
2903
292f
96d0
ad8a
2a6f
1e66
2865
2d2c
10c0
2abc
a1f3
2eee
a82b
a29e
a885
3044
292f
a56f
2cc9
aefa
9cf7
acb1
aac4
a4af
af28
ad2b
ac5d
a102
92c0
280e
a85a
28a3
3009
272b
2db8
249c
a95b
299c
a884
2c18
2af0
2e02
2fc5
2844
ac3b
a962
2c4a
2cd5
a948
2a0a
afaa
ab2c
ad30
1fe4
a2b4
ab3e
2324
2e3a
28d4
a809
a10e
9679
2af3
2867
2bfa
ac0e
ac8e
a84e
aea2
2789
acfb
1428
ae9b
a9a7
2f21
acd6
2e4e
2f7d
acfc
20be
af92
1fbd
adb9
2b0d
afd3
9a7c
260d
9948
2d3f
307c
2947
ad4e
29e7
b0bb
ae7b
9be8
ac70
23da
2b79
a798
ab40
a4cb
ae78
aa3b
208e
2939
a5c4
2afd
aeb4
262f
2c7d
26a1
acf0
a456
a0d6
3112
2b51
2b0c
af90
aa2f
2d7e
aca0
2300
2573
a6ee
29a2
289a
2d49
2fd9
2f13
2c03
2cfc
23aa
2a2a
2540
a9b0
14ef
ab8b
281f
acc1
ae6f
a8bd
aea3
2c58
acb2
2a78
2b0b
a8bf
2b26
a1a5
b15e
af10
21f5
afa7
28d1
28be
a0bf
ad7a
2b3f
ac23
230f
ab05
acb7
a94b
2755
a822
2d20
a95d
2569
ac17
2ce8
1f04
1ec8
241d
2bdd
2998
1dbb
a928
2a9d
29e4
2f39
a4ae
268c
9434
acf9
aca7
ac43
2615
a84f
2f5a
a39c
2d73
9f28
2e90
aaf8
2cfe
ad6a
2d96
2144
1717
ad18
ac4b
2191
2c10
a9cf
300e
adc0
ae3d
a844
a942
add6
2eff
acb9
2d41
a73a
acff
2785
a5c4
a334
1bf8
b08f
2d42
262a
2c5f
29d5
aac1
27e9
2e84
aef1
230a
ae92
af21
abe7
2a4c
2af8
2eb5
2d7f
ae3d
1e5b
ae5c
ac08
ac1f
a3b8
2b11
aca7
a804
abe1
28d1
ae21
1e9e
3006
9d24
292e
ad2a
2c7a
26a2
a9b2
acb0
a4ff
22ba
ac47
2d70
2f55
2e8e
96fb
258f
ac0a
acfd
a833
2405
aa05
ad60
ac05
ad7c
ab8b
ae9a
a985
afe7
20f4
a6d7
a06c
2b50
301e
2ccb
9215
ab1e
2f3f
adf9
2e15
ad21
2f18
abdd
2e3e
b018
2486
ab59
a518
a80e
a87a
262d
2e74
2c01
274f
b0c5
2f9a
24f9
a56f
adcd
acea
2e71
2b68
2efa
2bfd
9cc1
ad7f
289a
20c1
8eae
3027
1afc
a48d
ae6b
ae5b
ae36
a62e
2a55
2f1c
a110
297f
ae32
ae04
ad48
28a1
2ce2
ab6f
28f3
af8c
2d9f
ab4d
283c
2489
acb1
ac6f
ae87
a91b
2a10
aa05
2498
a86f
ae69
a919
ac53
ace0
aca8
2919
29b9
aa11
a9e0
2db1
2e57
244f
a7c3
ad4b
a4b0
2076
25d9
2816
a6b0
29d8
2c4d
a2eb
a6a4
2d64
2efe
1a84
2e55
28ef
acdf
a943
aea4
28da
a790
ac3b
ab87
ae85
a34f
a05d
a96b
2eaf
2e4c
2d08
2b3a
a832
9725
2d1d
1c69
23f5
aad5
a75c
ae0d
2c59
2e34
2e00
17b3
aa4b
acd6
ae0a
ad3c
2954
2e74
a124
a802
a333
2efb
2cfc
2a20
ae87
a7d5
204b
ada7
acb4
291e
2c3b
29fa
2df8
2e4d
2b04
2eea
2898
2b07
abcb
ae11
14a0
ad23
afde
2e42
286d
adfa
ace6
1cc2
195b
2d71
2aee
acb5
a9df
292a
ab90
ac4b
2d7c
a87b
ac91
a899
2b9b
2712
9f8b
2a5c
205e
2a30
26bf
abe6
a292
2b8c
26bc
adf7
ae4d
ab09
2f40
af14
2ccb
2c6a
2922
2d39
a9f0
2d59
98a8
15af
2c82
2cde
29ac
2bbb
965d
af36
2ae0
2d97
aaef
a9f1
25c8
1f2e
ad81
28f0
24bc
2b21
2d07
269c
a913
ad52
2d12
a7ae
aece
240e
26d9
ae14
a32e
a954
29ed
ab84
2076
2bc8
af4d
2df5
14b4
a956
98ad
2c11
a786
2e54
2cf7
a3f8
2d66
2725
aed0
2cec
9540
af9e
2e90
2e40
ac48
2b3e
ae7e
2bb7
146c
a62e
2604
2e33
a96b
2795
220d
2c3d
ac7a
2974
2d10
a949
2ab1
2de3
9ebe
2afd
acc4
2829
2b9f
2b0d
2ae5
2704
abce
ac4c
8fec
a9cd
2d0a
a9ac
a873
2e1d
a8e5
aa6a
1bf5
2a0e
b056
ac80
2d8f
a8a7
2cf0
2ec8
ac16
21ff
a5ac
ab0b
a812
2818
ae54
ac29
264c
1e61
b0ed
257a
a842
a855
ac29
ac71
af49
2f9d
af03
2e75
a5ab
acf7
acb5
2a09
a459
28c8
ac73
2a2d
ac32
aa42
aa6c
287c
acee
249f
2a22
2fc8
9457
ace6
1aee
28e1
2ef3
adc6
2a4f
ab67
991b
ad82
2b77
2907
a839
ab2d
a89a
24f0
9992
2c34
2ca3
a9e0
2ba2
ad53
2cbf
acc8
ac92
27f2
2c9d
acb5
2d12
9ed8
149c
adda
2bb9
ac86
2c20
2af2
aa6c
ad35
2ad5
2a9b
a44a
2df5
ac91
25c3
aaf7
a9ce
9614
2a85
a94c
a5d8
a5c7
2a58
2d37
2319
aba9
acae
adb7
2f67
9daa
2c19
ada9
a303
afc6
2b57
2019
21e3
ac92
ae33
ae54
2d61
a94d
a9f3
27a5
9f04
2af0
2ed7
27c7
2f1f
2c12
2842
2ddf
2cd3
2997
a4b1
a71a
ad27
6e5
a446
ad04
2714
2c2d
acc0
2928
adef
af37
253c
a905
a5bf
ae4c
aae7
2d7f
aadb
a109
2d01
287c
ac8a
1b02
246e
a5d1
1db8
2663
2c8f
a481
ab74
ac91
ad8e
a36e
2c85
a501
2c7b
adac
9f02
aca0
2e15
9a4e
2dc2
2cef
ac54
2930
27ee
21f5
2cb0
25dd
aab1
2858
2d5d
2c4d
b00d
ad5f
ae12
2698
27b3
aa45
ae2c
2b8f
2e06
2635
aeba
2d7b
26c8
a956
ae75
24f1
27c1
a539
2ded
9759
a9d7
2747
2b46
a905
a544
a8f2
a5e7
9d19
1fab
2d78
25e3
a81b
2b8f
1fe2
200e
ab10
29c8
a954
ac5b
a1c7
2b16
a180
302e
acfd
a866
30d4
aaa5
ac77
aca0
ab61
2afc
24f6
2856
2c6f
a98e
2e62
2ed1
28a7
2b03
abcc
a7eb
92b5
aa8d
1460
ae3b
2c47
2c2e
9e51
ab37
948e
a648
a509
28ee
1e50
29ed
2a75
a678
9fac
af35
2f4b
2ef8
2ffd
abb1
2549
2921
a945
2e8f
2f93
28ce
9f4e
ac13
ac01
2802
9c88
af4f
2bbc
2589
2c03
ab37
2b15
a70f
2e66
ac2d
27b5
acc4
2d97
240e
2dd0
afac
ac0c
ab12
299b
add4
aced
a69a
adc0
a3e4
2771
2990
a80d
2722
ac97
2705
a9fd
29ed
aa5b
295c
9a97
9bc8
a553
2bc9
2dbe
2fb3
2db0
acd1
ad39
2aca
99da
99b0
2572
ad2c
24e5
a85a
ada0
2e35
ae4d
2c84
ada9
2693
2cf1
2600
a9df
2644
2db7
a46d
310f
2106
2b8a
2b1c
2c0e
2b52
2249
247a
2b3e
2852
a929
9ca7
2aef
aaf9
2e9d
aef9
ad69
2730
1950
acf7
a5ba
ab30
a982
2e00
a63f
30d6
ac9e
2ded
a814
a01b
21e2
2e84
998a
a9bb
2b9b
ac90
acd7
a3ed
1b01
288d
3083
af1d
9898
2aed
a85b
a97f
b07f
a92c
ad3a
aa52
8ece
2759
ab29
2da0
2e77
2c11
adf0
99c1
29ce
2ef5
9cb4
af2a
246f
adb0
24c3
a478
a8d9
1563
a851
2c18
ad51
aec7
2d2c
2c7f
2c39
afc4
2f69
2765
29fb
a8f6
aa39
266e
28c4
2e1b
2a55
b01f
299f
2e6a
1fc6
2e18
af67
a8fb
2c64
2c67
a87d
a98f
aee4
255a
28e1
ae92
2b47
2d80
ad16
184e
b09d
2fc7
2c95
ada4
a9a2
285f
9e1d
a037
afb1
2c41
abd6
b09c
ad80
27be
abde
a669
ab0d
a8d6
a7eb
2eaa
2cd1
2564
a8a6
2c5e
a1e0
9f96
1cfc
219e
acb0
1c24
2493
a9c1
2eaf
abf7
ae87
2cc3
2913
2217
ac13
ad23
28d1
aecb
2eb4
a4bb
a231
2cd8
ab94
aee6
2908
2d98
a78e
282f
2c52
a7ec
a419
ab7d
ae50
a813
a28d
a802
9ddc
2815
a648
a1b2
28ae
a9bb
2c4c
ac71
2201
a81b
aea1
2e85
20d1
acb1
192c
2f1b
ae30
2f0e
2ec2
2eed
2aa9
aca1
2fde
ac38
2bb7
2a5e
281e
a9c8
ac85
2411
ac75
2ae6
1fc9
2e3d
ac2e
2ec5
ae3e
22e1
aa11
ac35
2f97
2c47
a4d4
2857
2cb8
2c35
233a
ad69
2365
2e36
2af6
2da5
af2a
2551
a23e
a761
aed1
aeef
2ef7
2bdc
ac8f
1d50
aac1
2382
ab69
ad2e
aa10
ab04
26e2
2764
2099
ac1f
2c0e
1c4c
a1e5
a084
26b4
27d9
a6e8
9cd9
2cf4
a81
ac4c
adb2
294e
ab32
a814
ac5a
2c1c
2acb
2c69
2e35
29ad
adca
2b33
aaa9
a0cd
a454
2751
2a42
ac77
2ac9
9ecc
9d7b
ade9
2aca
c68
29f3
2b79
20f9
2080
ace2
2c4e
2c59
aef5
2935
2c71
28e4
a8d0
ae00
a0df
2371
a1d6
2504
ae2a
2c2f
ad8f
1fe2
244b
ad78
a7eb
aa66
2bb6
a20f
2d9a
ac0a
8be7
9d93
ab1c
a1f3
1cc9
2ba3
27c6
24af
ad0d
ac82
abdf
a286
2935
297c
2cf5
281a
a1b4
2d7a
a8e4
ac2a
2747
2c46
2b80
ad4d
25f2
25af
ab7d
2a4b
a84d
9ea8
a9c9
2088
aee9
25b8
ac52
ae87
a330
2d18
2b2c
229a
a9d6
2932
2c71
9f5c
a57d
9c70
2e5c
2d79
a9d5
2c30
aea9
2b8d
ac16
204d
2b08
aca1
ada1
aee7
ac8c
202f
aaef
2f83
aa29
2b0c
2bb9
2bcd
29c1
2c05
1d32
abf8
2c27
290f
abd2
ad3d
ae66
2bed
29eb
2c4a
ae55
2ccb
abd0
a81a
a5e7
a715
296e
ad1a
2907
2638
af5b
a6a7
ac1a
ad5f
ad8a
aba3
22b6
a6e1
ace8
abb4
2a60
2a9a
2574
295a
a89e
ad8a
aee8
2fc3
2d90
27d4
24eb
2d5f
28ed
ac0b
2afb
a79b
ad25
265e
2d7c
ac2b
a8a2
a838
a879
2ce9
2cb3
26b3
a737
8c3b
2b8a
a5dc
aabd
ad4d
adf6
aaad
2aab
ab97
2d9c
af1f
accd
2882
a813
2d3c
2df1
a45c
ac38
a5f1
1491
ac67
2679
ac14
af04
a12a
adc7
2983
acb6
2d07
a9ca
a59c
acfb
2c6a
2daa
ace0
a7ae
a9f7
2bf7