2cc0
ac8d
b43c
b3ba
b652
3251
33fe
ad60
b0d8
aead
2e44
3478
33fb
b1b3
9ef7
3531
35be
2ee9
2af7
25f7
307e
2ff6
ade5
2c6f
20f7
9c33
ad8c
33cf
284a
3112
2c6c
34ba
381c
3890
35ea
2f61
364a
375c
3254
322e
b3ce
b0f7
a846
3414
3397
b4e7
b218
ad0e
22b5
30b0
35f4
34fb
3839
35dd
3761
342e
363c
356c
3724
3843
3117
2ef3
af2e
a5d6
319a
b337
b643
b7ea
b407
b217
b747
b59d
b892
b488
1a59
3129
32f1
22dc
28c0
3439
b348
ad3e
3048
aae0
b25e
b4d3
b401
b00f
aa87
b189
b2a7
b3f6
b5ac
b06a
b546
2a63
299b
b214
a660
aab2
3042
2d01
9a25
34d0
2cd2
a8dd
328c
3623
3629
355a
b465
2a25
30a4
2a94
348c
b369
b3c5
b807
b555
a54d
ada7
b27a
b554
b2a2
2704
b230
2ccd
38ba
38cd
2dce
3642
39f0
3c06
3c33
362a
38a0
3b02
3ccc
3ae6
35a3
3074
35ea
36b8
3066
b145
afd5
2f11
2be9
b658
b57c