2274
2a18
a50b
2467
a9e0
a45a
2525
23d5
9da2
2d8e
ac00
2574
a9c3
28d7
25c3
a943
abb1
ac5d
ac97
a57a
a4c3
adf9
a467
2311
ab14
a04d
28ea
a8c0
ac6f
a95a
a912
1c67
a574
2632
a819
2805
291b
2c80
27dc
9ef7
aa8e
289f
9e59
269b
a8b9
279a
a4f7
a94d
ac38
272b
2c2e
2af0
9f2b
270a
a63f
20b6
1edc
aaf7
a266
a1fe
a794
2081
984d
22b5
2a8e
2cf1
adc1
a461
245a
1ffd
29d0
9c4d
a8cd
1c81
a908
a218
a646
237a
280b
a6bc
a5ea
24a2
aaae
2618
2681
25e3
237a
29d0
975f
ad3f
2c8f
240b
2e02
a3d5
2745
abc2
8e8e
ad2a
2146
288b
a57a
a1fe
21fe
a76d
aa4f
a6fd
a68e
25a2
25bc
2153
19f0
2b2e
2805
9953
a32b
22b5
2752
a905
2abf
25d0