2c61
2e83
2f00
9e10
a43f
2cd1
25cf
a9f1
a9bc
ad5e
2c43
2d2d
25b7
2700
9fa2
a843
a95c
24a8
27b4
2b83
a693
a97b
a5f8
9ed9
a885
aa0b
a9e4
2a0f
28f2
a05f
a5b9
a84e
2d1d
a3a1
aa28
299f
a566
285f
20ab
a9d6
a977
a837
aaa1
1f9f
a808
a7e9
2536
a8c4
295f
2abb
2a36
24bb
a2a6
a9f2
24f0
a667
2a95
25ef
1d16
a938
a0a4
a3d1
2087
a48f
a90f
285e
a627
2818
a81b
28fa
1fc7
a951
a444
2a8c
2900
28a0
2157
a026
2dc0
270b
2ab0
ac97
a619
2b37
184d
9c68
9c27
aa0b
a31f
2744
ab36
a6c2
a2ad
9cba
a539
a89d
2592
1ff4
1f70
2730
2a01
2d6f
2985
2b68
ab63
2ca4
2e52
2ccd
282c
2898
24e4
ac38
aaba
a9c4
a9e8
ac17
a573
a6ae
29ee
a023
a810
a5bb
ad16
a0b0
a80a
ae6f
aabd
b18a
aa43
a6b8
a82c
a8d7
1ec3
2b50
2929
2676
1033
a802
29bf
9dd1
a642
ac4f
26f8
2b67
25ba
1fa7
2945
14ea
a83c
2579
a83f
2016
a2c6
2802
28ce
28c4
219c
2786
a8a4
aba1
a2a1
2537
28dc
a9c8
9d10
28b2
222c
2ad4
271b
a8a2
2bf9
ac84
29d7
2c57
aa3e
a848
29f0
2832
2aae
275c
a665
a810
236d
2706
aa66
2c4a
267a
a9fc
a439
2af7
2b0e
ab7a
219d
a8e7
292d
9d9d
26b5
ab06
9592
2288
2926
a796
a668
2a0a
a807
a42b
224a
2899
a0db
aa45
a83c
24e4
2339
ab36
a98a
a784
2a47
a69f
9d61
2ab4
1dfd
a163
28a4
ac23
a860
ab54
ac45
2450
1329
2ab4
ace2
a79b
a6a2
2c58
238d
a9a9
a8e6
accc
24f4
a57f
a7ae
2517
a90f
24a4
2895
2868
a7ce
28e9
287d
2a03
24c0
a91f
adea
9910
2820
1e30
a668
a890
a1cc
9721
9927
aa48
25bf
2528
29fd
26f3
2892
a31a
2ba8
1be8
2895
a1fe
9f41
ad72
2113
29e6
2729
a4dd
a923
abf0
2b7e
24da
a1eb
a792
28a3
a145
29f4
992d
a9c5
a9f0
1a51
2161
23d4
a934
a7b9
14b9
21d0
a93c
a911
a418
a7b0
aaff
a81c
abdd
ac62
28d4
249c
9ee4
276a
a334
2bcc
2c85
a3b5
2136
a844
2813
22ca
a5aa
2569
25b6
260d
288b
24b4
9d89
a802
9990
a6ee
28ca
2ced
2ae6
a4e1
242d
1dfb
223f
2a63
a444
220d
20dc
a4b9
2596
a852
2827
a74d
aa17
a85a
a804
a849
976e
cde
2683
a8ae
22ae
aa73
ad32
acfe
29e0
2bd8
23f6
a92b
abff
265c
a483
262b
2bd4
2dbf
2c3d
2d70
a8e9
2c6f
283b
aa4d
a86f
a25b
27aa
ac06
a417
1b4e
1b9f
a758
22b9
28fc
2b41
2953
a111
1221
2785
a6d4
9ef9
29ac
29a3
245f
9477
22c1
a0de
a5d5
2c2e
26f3
a959
a664
9d4c
2828
2691
2234
9f42
a11d
2829
28de
2a59
1e6f
ac85
2b36
2c27
ac8e
a4ba
a3e6
a8b9
abde
a0e7
9c49
24e8
a940
a3f0
a91d
882
2c49
a26e
2792
2729
2bf1
2546
aab8
2811
230f
21da
aa64
9f03
8e26
a6e5
2591
f68
2910
210f
281c
a350
a9d5
1f6b
2900
98c3
aaac
294b
25fb
a36d
9629
a80c
28d4
aa26
2290
2b1a
a514
1ffe
a1c6
2747
23d4
291b
9cb1
12e3
279d
a214
a769
a7d3
a9b9
acdb
a76e
a509
29c6
2a73
268d
2d49
2b21
2625
a339
2cfb
2a63
2831
ad18
ab66
a962
240d
290f
ab07
a620
2871
a0bc
28ed
9f9d
241c
26cd
2bf6
a73f
21d7
a66a
2cce
2d87
2926
9eb7
2a6e
303a
1342
a85e
26a9
2553
a8bc
a8aa
2751
ac89
aebc
af19
a6af
24e2
2c35
2cba
a937
9c88
9f2c
a922
a840
aa9d
ad38
ad5d
abd4
a793
ae68
a695
29e3
2856
10df
2542
a082
2d4f
1e79
a898
26f2
263f
1a7d
9323
a4dd
2bf3
29a9
9c0c
a728
a95c
a850
a5a8
2a0f
2c7f
28f3
1c6b
a730
28d4
21e1
a751
28fc
1e75
283b
250c
922c
a7af
2212
24a4
9eec
aad4
ac30
2843
247b
22eb
a1e0
2c08
2912
a24d
a5c0
a526
9168
29fa
a8cf
a999
1dbc
27f9
abae
a8e2
a723
2b7c
a4db
2a98
a6ac
a2b4
9101
a8a4
2417
a847
a3f4
2438
a596
224f
2a70
2906
221d
9f2f
2156
2a38
a5f8
29d8
9ae8
aab1
ab4d
aa0a
9e4b
a07f
a863
ab7d
a61f
a205
a5c1
a976
aacd
26b7
a885
a9ed
a857
a8e0
216e
292d
a6e6
9ba5
2968
9db6
a948
acab
a878
2c72
a9ba
2c20
a29f
a442
a65f
2623
9926
a4a3
249c
1f3b
a1ea
1ea1
9c3c
a7e1
a493
a52f
a5dc
2020
789
22a4
c36
2cb7
ac70
257f
a02d
9eeb
29ca
a6ad
2cc7
2778
a6a9
a72d
24e2
a677
aa29
a76e
2a3f
1477
293c
1d6b
9fd5
a4aa
2802
2272
2c2e
29d2
2d7b
9c7b
a4b5
a747
a79d
2cd2
1862
18c7
2122
2873
ac08
a494
a876
a891
a57d
a33d
28cc
28c4
239a
9961
281d
a803
2a8d
a258
9b00
a258
2cac
a8d2
9db0
a5cb
99b4
2c12
aa03
2577
1356
a633
a968
1c88
a545
a002
285b
a83c
99e1
a55e
27af
a8ac
aa4d
2973
29ce
2cd1
a820
a4f6
2058
aaaf
a7e4
299b
280e
a0b1
abf0
aa89
a3e5
2b87
a6ea
2b72
2a48
2498
a72b
2ad4
9c3c
a611
2a73
a1d8
9e70
a9f3
96b9
294f
2c20
9938
2caf
2088
1d22
2277
a461
2983
27b8
aa88
a227
2578
aae5
ab01
a6da
113c
2cbc
a134
a679
2c6a
287b
2ab6
26a0
208f
28a4
2a16
1faf
a14e
235c
2ac6
221c
264b
a6e6
287c
253a
a029
2328
aa61
acab
2a8d
205b
2433
a11e
25be
9da8
2a96
a516
2528
a999
adfa
a991
249d
9b2a
ab81
a90c
20cf
2917
a829
187f
a806
98d3
a446
200e
aa23
a9ea
aa8d
a856
a86a
a478
a745
2197
a952
2b9a
2281
a27c
a732
9dd8
2ad5
a744
9d4a
24b9
243c
288a
1e6c
2623
a677
2654
a8ea
ab18
a580
a911
2ac4
a1d4
a90f
230d
a45b
28e0
29eb
24f0
a601
a937
a21b
9ed7
a948
a749
ac4c
9029
a8f9
a536
283f
9a01
a946
a36b
a4f7
2061
a224
2344
2b86
29a3
2677
aae9
9aa0
249c
26c6
2b72
a0fc
a512
24ac
a161
2934
1c85
a8ea
aa74
a96f
a92a
278d
1be1
227f
db7
19df
25c5
29cf
9e2c
21a6
aaf4
ab11
263c
2c3d
9c67
2888
1cff
a3e1
a3b0
23b0
a002
1aa2
ab4d
ad48
9c30
2b0b
269f
9415
a251
a5ec
a051
ab6e
a8dd
2625
a84b
a2fc
a8b9
264a
a8c5
28a2
2b59
2c54
25fb
a8ac
a10d
2867
288a
a2d4
a236
24d8
2423
a2aa
ac5e
2a97
2879
26be
a78c
1b6f
2959
a626
a8b0
2a1f
a18a
24ed
a4fd
aa72
ac03
a4c8
accb
a828
2438
ac1f
9323
25e7
abbd
205f
a3a1
ab37
ac86
918b
9853
25ef
2cd6
a833
a828
9a98
2bcd
2a03
1eed
a830
a936
26f0
247e
2b51
ac3b
a83e
2885
2b0e
a3ef
253f
94dc
a894
a888
a94e
29b2
2072
a56a
a162
a95f
29d6
1ce8
a8d2
a917
a8aa
2837
2291
9e76
ac18
2996
28c0
26ae
a920
28ff
a857
2875
a9ad
a87f
2889
a80e
81b1
28af
9e12
1bef
a4bb
a9c7
26fe
aa1b
9b8b
a62d
9211
2a06
21dd
28d4
264e
19e1
a9d1
259d
24e9
25a5
9f54
a1c1
204d
1d21
1905
2574
8b99
298c
a573
1e68
26ec
a2db
a86d
9e4f
a256
9569
a017
2ab3
9a19
aa67
2560
9334
ab07
17b9
aa70
2b7c
29d0
a54a
a763
2aad
2563
2ab5
a82a
a881
a928
2600
a9f5
24b2
25a2
2646
aa56
acab
aaf9
2584
2629
a848
ab0d
2499
27bf
299f
293e
a685
a641
a57f
1a7a
26cf
9fe7
2571
a864
a8a8
279a
9188
2253
a8e6
280e
275a
2840
aa6c
23f9
29bc
1d90
2017
abb2
a0b1
28c6
ab55
a804
9dfc
a73d
a8b7
27fb
289a
205d
2b91
2c70
2804
286c
a527
1038
22df
2aba
27e4
a959
ac5a
a678
a3a8
2a2b
a63a
2207
2372
ab17
2bae
2760
22e4
2418
9e2a
1c9b
a729
1e63
a526
23fa
aa66
9dd3
aa57
2a15
1a70
a872
ad28
265e
2aa9
9d77
a429
9f18
a1ce
aa93
261e
a7cf
a7a0
a87c
2142
a198
22f8
a0b7
1a4f
a898
23ed
24b9
a4fb
248a
275c
2479
24a4
ab1f
ab2e
2ae3
2847
a0c2
27e8
240f
a85c
a82e
98cb
24f2
28b1
2ad6
1ef9
2b95
28ba
28e7
a325
1c74
2d92
2c64
aa03
a8b1
aa2e
2b16
a5d7
a6fd
915d
a902
a865
29eb
a24c
a4b0
2989
2921
9c93
29f9
a69e
a942
a800
230c
20e2
a949
2732
aae5
2ba8
2918
a0dd
2699
a8eb
9c03
abf9
2508
a882
2886
253a
292f
2613
2b17
a6f6
264f
9d1f
a92b
2235
9dd7
2517
a9a3
a8d4
239b
a805
abf6
8819
22e3
a4b7
27c7
9f6c
a98c
2c5a
a12f
a482
25cb
9c99
260c
a76d
a18f
a1a8
2cd2
2bc4
2a16
2469
24b5
2bcb
a48a
a4b7
a98f
ad01
9894
282d
a9be
2936
ad89
2af8
1c83
1988
2a66
a6c0
a3e9
a527
298d
2752
a825
9f5d
aa6e
22d7
a634
ac25
2a7f
2b9e
a80b
9e58
2524
27b3
13dc
2172
2434
9d55
24e2
22a9
ac4f
a32e
a3e8
265d
256d
28de
2a60
284b
a44b
a632
a826
25b1
a88c
ab51
abe6
965f
a9c7
a5bf
a7f2
ad0c
a886
a6f1
a8eb
ac46
9a38
27be
a24b
20c1
15e9
2839
a2e5
a54d
2580
ab09
a843
26f9
2845
1598
a4aa
268d
a6a9
ab08
a267
206f
2901
a5ab
225c
2957
21d9
2435
180b
28f8
2c79
a7cb
a852
aa98
2265
2978
9ab2
2cdd
2445
aa1f
aaec
a2aa
2609
9912
a1a4
2cb7
2598
ab45
21a3
2294
2c9b
29ce
22c5
a0b9
aa98
a002
2b50
29b0
1089
a0a8
2a19
2d9e
2482
28fd
1c2e
a8e5
25df
2734
1bd7
2887
2cce
2897
2a7d
a9af
22e9
2816
2655
aae1
2804
2079
a187
ab11
a9ee
2898
a745
2c7b
2d32
a9d6
27ea
a87b
a819
ae53
aaa4
a87a
a639
a517
a87e
aad0
1a7c
ab83
25e3
a80b
29de
a804
23c9
9b71
a033
a627
9e62
a94f
2145
9602
a747
1ef3
264b
296a
abbc
a8b4
2508
a551
2276
a97f
a479
a709
aaaf
2935
a845
29d9
a083
9870
a4ed
1e10
2840
a6d8
2c01
27d9
235f
2886
259e
a9db
2ca5
a7cb
2114
a6fa
284b
21c5
a828
a6ee
28df
29d0
2462
28a4
2472
251a
aa75
2639
9b61
1f29
2650
141e
2ce6
2b6e
a44c
a3a0
a1a6
2442
2ac6
26e0
28a5
2a44
1d3c
296f
abc2
a9ca
230c
25a9
a94e
2412
26e8
a8da
9aff
243e
aa09
2909
ab66
2b83
2a37
2a45
a906
a9ad
a434
9ea8
a046
a43c
a7df
ab40
2420
2b0c
27d7
a926
ab9f
283f
1e9f
aaf5
2464
aba7
28ec
12f1
1ba6
2860
2c79
a81b
1d9c
2997
28fd
2d14
2b42
a276
27a0
2764
a549
1cb6
2a45
a690
a440
2aa2
9ca7
2ad1
2549
a882
219e
296a
ab09
a6fd
2990
25b0
a6ff
a806
28b4
2876
29e2
2c18
1df6
a941
2915
a6f1
2629
23a5
abc6
a90a
28b3
a0b0
2146
a49f
24fe
acce
292b
a117
1ff9
26b4
2a09
2b8f
29e9
25c5
2d66
2a0c
23a1
a53b
ae59
24fa
2783
2bae
9f61
a5dc
209f
2812
2643
273c
ac64
2961
2876
28b4
9e03
a5df
216e
2b1b
a89d
a46c
248e
a51f
aa7d
2584
a05f
2819
a9be
1e3e
2371
98b2
a935
a5fc
aa51
a9f2
acf2
a678
a65b
1e22
a945
ac98
aa4b
a2ee
2048
a5bd
1808
1fa2
ac5d
2ac1
a5e5
a943
9859
a990
20cc
2c27
28f5
8347
2125
28c8
aa0c
2c35
a553
2897
292a
2cd4
9c0a
2a1b
2849
2a4c
23b3
9931
a40c
a820
2862
256b
2a80
2595
aab8
b016
8ed6
29a5
a827
2a6f
ac27
ace0
24b7
2320
2098
a427
a571
1dd1
95a2
a41e
a80b
ad97
2904
2a4d
2ad1
a859
29c7
2f12
98ea
aa3f
ab1b
99c9
26af
20f2
ab89
ae19
2299
2b5c
a9a5
2850
ac39
9ce3
298d
2d8a
a821
a9a1
ac27
2adc
a3b3
aa9b
aa90
af17
aeac
a359
aca8
1ae6
a7c5
2899
2c1a
25f9
ac2c
a721
ab18
1359
1d55
a83a
a562
2af0
a5bb
2973
a972
2a25
886a
28fc
27cc
a8a1
2a9b
a073
aadf
2439
aab4
ada7
a54f
a073
232f
2aa8
2a63
248d
2aa2
a531
9386
2926
a47e
2261
2e25
9ac8
2bc3
26e1
2c84
ac5b
1b6c
2241
2429
abf4
2741
23f9
87a5
a8d2
a82f
2294
2749
2dc0
2abb
296b
aacb
ac8a
19d4
2b62
a7df
25c8
2ae7
21dd
1d92
9c86
aa78
a741
2c64
27bf
283a
2622
a760
29be
2262
1c2f
a47f
a143
293d
2229
230e
1b20
a595
2d94
a748
2506
a86b
2bb2
1f5f
1581
201d
2445
232c
ac30
a464
a0d0
2189
a726
a26c
9c18
29bb
aabf
235d
ab36
25e9
246c
2419
ac96
29e5
a78f
a356
12b2
21ee
2856
2900
210a
2a34
278c
af00
a2b7
2a1d
2b0e
2803
aa30
284f
2853
1dd9
9c0b
a7e5
2561
aa50
aa00
a59c
adb8
a0c1
a9ca
2864
2a9c
adf6
9c92
273f
a06d
28f6
2063
aa43
a563
a046
a098
a4a3
9dc8
2a2e
a882
a436
288b
2841
a6a0
24b1
20cc
a852
a423
a70a
2cf6
2c58
25b0
282a
a3af
1e70
297c
c1d
aa5e
a492
29d7
293a
2518
a39a
27ff
2623
a4f6
a9ba
22df
27a1
9e82
ac15
2825
2447
2c68
270f
2abf
a467
1887
a5aa
a4fc
a5a8
2919
2da9
a72a
9da0
1fce
29ff
2a0b
ab15
aa53
20eb
a964
a656
a98d
28ca
152a
27f3
a4d4
a6ef
a710
a43a
a377
2ce4
a01e
236b
2ca5
8396
ae7c
acaf
2821
2d56
2bdd
a835
9b27
a68e
2728
ad0e
a2b9
253b
ab3a
24a5
a741
2407
9d07
a79b
aa2d
ac61
1d5a
2c4e
1c78
2b48
a55e
99e0
aa2b
2400
25be
2bf1
24b6
261f
284d
ab59
2b28
2c65
239f
a8f8
9d9e
22d3
2174
2405
2a8e
2b98
223a
aaff
252c
2abf
aa70
a6e5
21c6
a776
15f7
acdf
ad4c
ab39
a7c5
aa04
20e0
a8fb
9cd1
9d36
248b
91c4
2238
2465
296b
23b9
aba7
a654
2c66
28db
2966
a9d3
2a7e
2093
a793
2203
a125
29b0
2c30
a6ee
2873
9f99
a992
a9ed
9fda
246d
a968
a89c
22d5
29ed
265f
201a
21bd
2c09
2761
a644
a2ee
29ac
daf
18e1
a771
281e
2c35
aa11
a071
aa3f
1c9a
2862
2810
2507
2699
243d
240f
2445
ab97
a94c
2528
25b9
aa6f
a8c0
2447
aa79
a458
a10b
a5be
a992
a953
5cd
2202
a5d2
244b
a260
acd8
a04d
ac37
a410
2849
1c07
2409
a274
a985
aaa6
ac9f
a43a
a878
29e4
9ec6
25a8
29b0
a685
ac5c
2732
aa1a
1a6e
ae49
ad81
aa17
9cec
ac86
ab84
a9a9
a075
9b72
2c3e
9f74
a9d5
2955
2802
2610
24a9
25ca
2aa8
a028
a95c
2915
2b23
9c7a
2cf9
28b8
1224
a2c7
9b33
2531
278d
229c
a87d
a8b1
2775
28b6
aa50
a5d5
949f
2750
ad1b
1cf9
a9a9
9d32
9b7f
a315
a955
aa02
252c
2493
1d01
1fca
2541
289c
a58c
1681
2cbd
a574
a147
249e
2b88
9e57
174e
279f
29b1
200a
2d80
ab65
2862
a581
ac66
1fbc
a5b4
24aa
2d22
a3b1
24a5
2af3
ac14
2400
1f48
a806
24e6
aaff
25f8
255b
1380
2d46
95ed
aa72
2a76
a904
a5df
a492
a61d
a923
2552
a68d
2130
a7d3
292a
9182
24f2
250f
a6ff
8fdb
a830
a46f
a3c2
2b36
a9a5
9b9f
26fb
28e0
a15c
a1a3
9cb7
26b1
a208
a98b
aa9d
28ff
1d9a
9e32
a641
29f8
a388
a89a
a505
2427
2859
2a7f
25fe
a58b
a4f9
2abb
a327
21c6
23a8
1cb3
280f
a81b
2373
2abe
9dc1
26b7
2472
2766
23f4
9c1e
a949
26be
28d4
2a8b
a4cf
2dd1
ad21
ab25
1cff
ab29
2a86
291b
298a
26b7
20db
20bf
244e
2711
1ea0
29ae
2958
abc0
a690
a479
a51c
2b06
2c75
abf5
2a75
9b65
9dae
99fd
a584
8353
2877
27dd
2a95
ab2c
1dbd
a87e
279f
a1a2
a99b
249b
1d7d
a84d
a39d
197a
1d0f
249c
9e2a
a524
aa86
1876
25ae
a4ef
28e4
27e5
2821
2797
168
270c
299c
a43c
ab33
19cf
ab4b
24c9
a86c
27d1
2aa7
9e1d
a4fb
a62e
1c04
2d19
1cef
29e8
a8d9
9bab
2285
a357
a89c
aad8
adb1
13ff
ac4f
aa98
a331
260f
24fc
20db
2950
a1ce
28dd
98b0
a596
a4c0
a2b8
2488
2a13
a998
a69e
a703
8c19
acc5
2354
abc8
256f
2b86
294d
2cf0
251b
26b6
267d
260d
2970
1e61
a8b7
286e
1abb
a8dd
183c
aa20
2738
a935
a182
27da
a9fc
241c
149c
24f6
aa95
28bf
283f
2a8d
257d
2857
2ada
a569
a73b
a2b0
a3e6
2c72
24bc
226f
1bc4
a25d
a2f5
2527
2ce3
9ebb
26e8
a7ce
2e52
1dcc
2869
232a
1c36
2c6f
9099
aef4
2831
1d7f
a246
a168
945a
2009
aa79
a9d7
ab36
a330
1fa3
28c1
9fa2
1c69
a95c
a711
24fb
24d8
24cd
ab46
28e0
9a44
2682
212e
25ed
a1bb
28a9
2637
2869
a0f3
271f
a37f
297f
a200
9868
25da
a611
2bf3
2820
a681
aa53
a8d7
a135
2cee
1fec
a902
278e
1909
a579
193c
2c0a
a722
276a
a56b
a802
a093
2c06
a8ee
aab1
a6f2
287c
280d
a837
1c5c
2809
2a7d
2760
a9bf
240e
a100
a649
a59a
a921
a619
21b0
abbd
a8a2
a85a
ab19
a5d5
2550
297d
227f
242d
ac27
a334
2487
2867
2a42
a47d
25f7
1012
210d
2b31
2340
a016
9f89
2b65
2878
24b1
acaa
aacf
aa07
a344
ad5e
a75b
ae39
a8ac
ac0d
a9bd
a6e6
a135
2645
ab8f
a897
a912
1b68
a5ee
ae71
a90d
2b26
ac9a
21cd
a029
2311
a8d6
a709
2c9d
2bf9
2775
9f57
2463
208b
271c
ac46
1faf
1cee
a074
2792
1c0c
9432
9ccb
a82a
1fc2
279b
2335
2464
a9a7
2977
a688
26a9
1964
a40a
9d9f
ab09
a1bd
9330
a241
a685
ac6d
a627
2871
a9f6
a52a
2816
aa9d
2563
a34c
2839
a4f5
24fa
a257
a3c2
a4d6
2800
177a
aa37
a162
9e4e
1db9
2868
1921
2b76
26c8
9df3
21b6
9c4d
2692
24bc
2a11
9bcf
a4ba
a0bf
28d6
2abe
a403
1d7c
152d
2929
2879
a9a0
231a
aafa
21c0
abe6
a5f0
27a2
ab9a
240d
242c
23cb
2929
2949
a717
a536
20b5
a01c
2bc1
aa8d
25c6
290b
ad61
2851
2666
27ca
2583
ab57
27cf
2c22
a13d
21ee
a9a0
a0ed
1c93
a641
2355
28f8
a542
2333
1e2e
23cc
ad1a
2532
96ba
985c
29ec
2241
a207
21d9
23c0
97e3
a902
aa30
2c20
9aa3
a228
ab08
ab5b
24db
2968
286b
a98d
2982
280b
a85d
2218
1f2c
a29a
ab6e
8fc4
2148
258f
a3bc
2271
9d3c
2f06
9bd5
2263
a68f
a412
a266
aa60
a837
a785
2b93
a1f6
28db
a563
9f69
29b7
a3bb
29d4
29de
2943
2267
aab9
ac29
aa66
a75f
98d3
a00c
2876
a863
aa09
abee
271e
a97f
ab05
a711
9eee
212e
29c3
27c9
270f
a5ce
288b
2887
a8ab
a8a1
2751
9c83
2a58
290b
28b5
26eb
1a52
95d8
9c5e
1e10
abca
229e
1179
a1ad
a85c
a363
2584
2951
1e96
a96c
13c0
293a
a6cb
246a
2371
a690
24c1
a7e4
2152
a921
2047
a6ec
ae84
92c9
29b5
2b7f
1ea4
29aa
a4ab
2834
a7ad
2a61
a5fb
a0e3
29f2
2cc4
89b7
a996
2762
2b34
a6fa
9f6a
2880
27e2
220f
a4ab
a8bc
ab3f
acbc
a693
2923
9e8d
ab20
abb6
a86f
2510
aa80
1c4b
a813
ac3d
2700
ac4c
24a5
af2c
aafb
a115
ac65
290c
2222
a453
2fd9
ace6
aae8
a4b0
2f31
2ff4
2101
26f6
25f1
262d
9ef3
a021
a8c2
2a4c
2471
2aa2
2157
a9a0
2672
2af7
29e0
a446
9e8d
a8c8
a4ae
2a04
25f2
a1d3
22ce
25ab
a877
2c4c
1603
2cfd
2779
9e79
26c6
a6f9
abef
ac29
a3d1
2d4f
acd8
28de
ab9e
2cfb
20d5
ac82
96e6
aed8
a993
aaac
a847
a901
9d7d
2974
23af
ab01
2625
a4a5
a321
1de5
2b45
280b
2af1
ab0c
a6fd
29cf
aa7e
20b2
acf5
a81c
a822
2589
2a01
a5ed
28db
2c45
2b34
2c09
a7a5
ab63
2705
adcf
a545
28c3
ac8a
2d94
ab29
ae11
ac06
a7b5
229c
abb0
ae1d
ad16
a9df
25db
ac59
a454
2a8e
25ae
29a8
2d69
2114
2f4c
2b38
2eaf
2b4a
1c01
aa1e
1d42
2a4a
2aaa
ad7e
248e
2072
2419
206c
3202
299b
a490
27f8
2d35
29b8
ab54
287a
9509
a9d4
ade4
aae4
288d
a940
2843
abcb
242e
25b4
2cd7
1aba
2965
a5ca
203e
1fab
9cb2
a1de
19f5
ac68
a218
a896
a49e
1801
acc3
a866
2dd9
1bbd
1c1b
285f
291a
23a5
25f1
15ad
2489
27d3
2d6c
2825
2595
2d1b
af8d
ac28
af0e
9b5e
a389
9c0d
2a30
aada
2878
a71e
a90b
a9cd
a9ea
a81c
2b36
278b
a477
1f0f
a971
2974
2be4
1fd6
a457
aa09
ac26
2a47
a573
a480
a55a
9fa8
2195
ad20
a8a1
1da8
247a
a72d
a991
296d
2dad
a38a
2c32
2d38
a860
a8b8
2c24
2874
a155
2a03
28d5
2619
1a57
a541
a50b
1c6a
224e
292a
992f
2c0e
aaec
2d8b
2eaf
ab1e
a53d
1fd6
a0cc
2c35
2c63
a3e4
28bd
a944
ab66
2521
ac0d
277b
2abd
2875
28e1
29bf
242c
a8ba
2c08
a9cb
2bf6
a09d
a3d3
249f
298c
1c27
aa2b
28af
a0a4
2b3e
2720
261b
27f6
a50f
21cc
a0b0
a8a3
a711
a881
a41f
29f6
2417
24d2
2712
2f79
aaaf
2153
b13d
ad4b
9e24
a90c
9deb
2274
289f
29ae
1f44
2831
acec
aeba
a1dc
a92a
a81e
acea
a979
a51d
202c
2bcb
26b3
2d08
a78e
a58f
2bac
2000
257b
aace
2464
a54f
2053
ab99
aaf3
aa79
2a43
a565
a9a0
a60f
2b7e
19c6
2d23
27f6
285e
2fd3
211b
a7ef
2929
ab42
a8e8
a952
9f84
1c21
2573
2aeb
2f24
a810
ad6d
a66a
2b33
aa2d
2017
ac14
1f2a
a32c
a75d
ac79
a4eb
2d4b
ad60
2a58
a8ca
2019
2d95
2a6a
acb9
a916
2e0a
26bd
2a25
a96a
a9e9
18c4
a824
2bf2
22d9
9ef5
ac50
ad25
a093
ac4c
28e3
2970
ac20
aca0
9379
a7d8
98d4
1d0c
ab4f
2d85
2549
a26b
178a
aaca
a6ce
2a25
2141
9f71
a999
adeb
8e73
aa9d
a999
a6d4
ac18
14ac
1eb3
aec8
292f
a74a
27eb
2720
a98a
1294
2dd8
a30c
a508
24d6
292a
2d30
a637
2a4c
2c64
2c6c
28b0
966
a6b4
2ccf
a484
a103
aa32
2806
24d5
270a
1b48
22e2
a61a
a0dd
1dfc
a503
a93f
287e
9f75
a074
a6af
2302
222e
28cb
2598
a6b3
a9b3
244e
a956
a073
26a1
a994
206c
2aff
ac5c
a997
25d7
26d5
290f
ac02
aac0
24b6
1b07
2787
a956
22c7
24fc
2790
a871
2b8f
12a6
a7c3
94f9
28cc
2817
ab83
a159
25f0
add5
18b1
25ba
21e5
2943
2846
a758
aaff
9875
9c1b
2706
a684
277d
5e
21a2
a6b9
a772
aac5
a4a3
22c4
29cf
acd8
2543
15ee
ad7b
1d30
a866
aaa2
24e2
aaab
23b1
2bea
2ad6
244e
243d
20a3
a251
2ba6
ae7a
ab5b
98aa
2944
286f
9508
9d96
29f8
2900
251d
a3fe
9e80
287e
2cf7
1f92
259c
a298
224c
2ab9
a8fe
2a49
17f8
273e
11bd
a813
a82a
aa16
9953
a4e5
2561
1c81
24c6
2901
2a09
98fa
2410
1ca5
a64a
aa65
2b2b
a165
96b2
2c32
a8d0
a2f7
2a15
9982
2780
2c3d
281e
a9f5
a2b0
19ce
240e
a13c
a851
a1da
1e3d
25aa
9e92
a9f
2b33
acb6
a601
a1d8
a48d
ab6a
a250
aae1
240f
a1bd
246f
156a
a424
24ae
2b05
281c
23d8
a591
a43f
a666
29dd
1db5
9c5f
1a13
a81b
a4c1
a3a9
25c1
24df
2337
2a7c
25c5
aab5
2090
d69
9d76
2a21
23a6
9d51
a52b
2499
2bd3
9a61
24ba
a83d
263f
a249
a01a
2c39
a40c
abd9
9f56
280e
a69e
1b34
a6d8
25d6
15bb
a7df
2a05
a54b
252a
a097
200f
a74b
a981
18d2
25d9
2859
2d35
a65c
270f
98ef
2a2d
26ab
98f9
2113
2709
a303
a9d6
21ab
a92c
24ad
1279
29a2
1c08
2502
a8cb
ad49
9f88
a82a
a593
2888
aa33
2a93
24d5
28fd
2cd2
2008
a90b
296d
a75b
9c72
26e6
2503
25d8
2c50
2970
a899
1493
abf7
a503
2699
2750
2516
a85f
2800
260b
ab46
1dda
2c6c
a65c
276d
a154
2972
2ccb
adde
244a
a940
a84a
29fb
161b
29b4
28b0
290e
a227
2799
a810
a159
2379
251d
a666
2a8c
a842
25b8
2bc9
19fd
29e0
1c11
202e
24c8
236e
2355
a110
a928
9ebd
a47c
a372
2083
23d1
19a2
25c1
1fa0
28f8
a05e
aba5
1987
a4dc
ac41
2c93
29e3
a913
2032
a40f
ab74
a9e6
aa2a
ac55
ab94
a7dc
2c5f
2af3
287f
abf5
245f
a600
a3b0
2150
26b9
2710
a472
a7be
aa49
1b5b
a38a
a252
25c1
1dd9
a85d
28d7
2a3f
a47c
a448
a04a
a9c2
a95a
2756
28b7
2d0d
180a
248f
2415
a499
a3ce
2829
a4c0
a422
297f
2cb0
aaa5
a309
1f69
273d
ac71
2c0a
1cde
a982
27d2
a2fe
ac66
a2f3
ace9
ad2a
2e8b
a8e7
a8ee
2544
a6f2
2bf3
2a0e
28a1
2930
a473
a532
2690
9d5c
a529
2941
2140
2994
24cb
aaa0
a866
282a
264b
a2f7
9c45
a640
a836
2b1e
2b1a
a98a
a47f
a93e
2730
2564
a5d5
a5b4
2bcc
25c4
a034
21c2
a543
28e5
2dc5
2ac6
290e
a2dc
271f
a428
aba8
a877
a3d5
a429
1d39
9d9b
a696
2802
2a3a
1c4b
248b
1699
296e
2872
2444
2b13
2867
ad75
1c4a
aa1e
9b09
2c65
a8f3
ad95
27ac
a5ce
2684
2812
2546
269a
2b1f
2c66
2c0f
2526
aaa2
2862
2355
2bb5
2ca4
a00e
2e4b
a1d5
a41b
a731
2df6
a6f6
2a10
a418
a986
231e
ac7d
a710
2845
9a4a
2552
9990
2863
1c1a
2d2b
24f7
2ce7
a808
adb0
94f4
a6c3
a928
ae64
2718
998e
25e0
abcf
2738
293f
a33d
9fdb
2d61
27e1
af12
aa52
2826
2d24
a6a7
9470
1d90
28dc
279e
a021
a944
9ea1
1c00
2714
acf9
a88b
2be3
2dbf
a39f
285c
a639
285f
2c19
a828
2633
a793
28f8
a911
1c42
2917
a180
2798
294c
22cf
1a34
27af
986c
9c3a
1d8b
20a9
a1c5
824a
a22b
993e
2c71
960f
2666
2e01
293f
a894
23e7
a87c
a63f
226f
9cab
2a9d
1ca2
259e
2741
255a
a899
9a02
14ba
a4ab
2c63
218c
2953
1d9f
2548
aacf
a812
a31d
23e7
9df9
a204
2acd
2aac
2917
20de
ab6a
298c
2ce8
a8e7
a15d
ad85
ab8c
138c
2a4c
a847
ef2
21ca
2536
abb6
a833
256a
948c
a75d
9a3e
2b03
9e67
a907
adc2
2ab0
2370
9568
accc
2648
2db7
2542
ac35
ac1a
95c4
ac7b
ae15
a792
28e2
ac92
2d6a
256f
1d2a
29c4
a9af
2210
a51a
2d6e
9a4c
a0f5
ac94
a453
a68d
1fcb
a675
25f1
26a3
a63d
242e
2756
a8b4
9092
aa1a
a878
255c
2707
a418
a7ae
a3d4
271a
a2a0
2a21
aa5c
a61b
a655
ac8f
a682
283b
a38d
2b1d
a2d7
964c
2445
ab26
a4c6
27aa
a379
2962
a574
2915
a929
266d
9cd0
28b5
2a01
274f
a160
968d
2969
2890
2990
a607
a435
28e9
298c
99e8
1ff6
27d9
29d4
2830
a4a9
a803
1f10
2be1
a426
aa15
2848
988f
ad74
a9f8
2283
28f4
295d
2454
9bd0
a5f7
a930
2849
275c
9dcc
29e3
9db1
a5d4
1926
2675
ac73
a9af
acec
a18c
acae
2f06
1fcb
ab5a
2e7b
2ac2
aedb
ab47
2af2
2888
a82f
9c01
2baa
2365
abb5
ab77
2a3b
2da9
15a8
1820
aa8b
a656
a0c4
a4eb
2969
2872
1a4e
2898
2c0d
a589
2f2f
1ce0
a8a1
990c
2a14
a8db
a4b4
a1ec
2700
2c33
a1cb
24ac
a6ab
2227
282b
a966
27ca
90e5
9778
a6a9
2b12
9a45
a588
9a30
28fa
a52e
2c70
a5ab
1ba1
22c3
24d7
2616
24c9
28e3
21a2
27db
282f
a607
25d0
9e2b
215b
1e19
28b7
2a04
2a03
28d4
a6e8
2509
2359
285a
2a15
a148
255e
17b6
1ed2
a968
a56d
aaa3
a9db
28e6
27c3
29bf
a932
1d91
140b
aab2
a530
25c1
a3ec
8c9a
a9cd
abec
adcd
29ca
a612
250e
27ed
2b08
2c80
2935
2774
1c2c
1fc7
28aa
23c2
a20d
2a43
8fb9
27ca
a7bc
a134
272d
1c49
a668
284f
a535
2849
a413
a7ba
1f83
2973
9c13
2a20
261d
aa7d
930
26b9
ac27
243a
ac0a
2945
a4a5
a19c
1d4a
2c27
28fe
97ca
2034
a861
9b4e
a256
8fff
28ce
aacb
a0ad
a8a4
294a
28b5
ab72
2421
a67e
ad1f
abfa
ac44
abb0
ab68
a83a
ac02
ae2e
a587
a9ef
1db5
1f29
1830
ad49
20eb
a976
29ab
244e
9efb
213b
a19e
9740
aa83
2ce7
227f
a835
a877
2e01
ab2b
a70f
a978
25b4
250f
a8bf
270b
1d5d
24c1
283b
2862
25bc
911e
2a7b
a78b
a677
a09b
997d
a216
2947
a53f
a927
28d8
2b7b
29fc
a7b8
a576
a29c
20b9
28a5
a84e
25be
ab86
2353
27eb
ab4d
a606
2821
ab05
26e9
270d
a826
9f9c
21c3
2b4e
ab8f
295e
28ce
298b
252d
a8fd
a72a
2527
d55
a4ca
20ee
a0c2
20f9
9c38
2988
280c
ab0c
28b7
2975
a9ee
9d29
a130
a2ec
2ba4
a51a
a4a9
98f8
9bc4
295b
a201
29a2
2689
ab58
a7d0
2451
91dc
181d
a191
1b9a
9dce
1b86
a8e9
2295
28a4
a4ea
a980
a387
90ba
a935
a473
a251
29ba
a763
8dc9
229d
2922
217f
1df9
641
9c1d
a9af
aa34
9a5c
2a61
2b1e
9c7c
1fce
ad0e
1c1c
ab78
a6f0
254d
27a9
a71f
a2a4
9418
a87e
2b0e
251c
a1cb
a760
15ea
a962
2776
9924
25eb
a69d
2368
1c1f
1cff
2763
1fca
1714
2abb
1dc6
2818
a8f4
a559
2664
272b
2824
228a
2b6b
2783
a8c8
2892
2929
2814
17ac
a81f
269b
26d2
9d6c
24c0
a99f
a5d3
a9fa
a5cf
28f0
a45b
9d18
20f6
2520
a946
28d3
a1db
2499
a8a7
a751
27f0
262f
2586
2414
a6ba
274c
a9fb
a507
a577
2579
21fd
298c
24cd
a3cb
a3a7
290f
2632
2b6b
a809
219d
a6f7
1c90
281f
28d5
2bd8
2725
9c06
a99d
96c7
24a2
a763
aab9
1e7c
219c
215d
28c4
ac5f
a710
26de
aa0f
2e84
a3a0
2b1a
29ef
950e
245d
2507
2da6
a770
a99e
ab23
28dd
a816
a0f1
28be
29e4
a5aa
a7f5
2985
2554
2acf
1c83
a994
2656
a8af
1e38
a259
22e5
a5f2
29fd
a747
a8ce
a04e
2416
9336
a467
a336
259b
2263
92e4
1e04
a49f
25e8
ae45
ab2a
22bc
2b64
2b84
a32c
2522
a273
a87c
acb2
a8a1
a42e
8d8e
a93d
a21b
2497
a623
aa92
9e28
2503
2ab1
1df5
26c4
aa72
93fc
a02a
9db1
16e8
9edc
2899
9cc9
21fb
a9a1
a022
23f3
a848
265e
9cfd
a603
2490
27a2
9bf8
246e
244f
2626
22d3
2741
2543
a6da
a9c8
a0f8
9413
2786
a7ab
9d59
28ab
a1bd
2b66
1c45
2c3e
aa54
2316
a9e5
acf0
a97b
1ca2
a755
2499
ac8c
24b8
acd9
aa59
aab3
a5cf
27a3
2583
2c78
26bf
2709
28c9
2c1e
a285
a7dd
a699
a8f9
283d
a9b5
a4db
a62a
29dc
ace9
ab8b
246b
22a6
2bd9
a6db
ac43
ad83
1e22
2346
ac85
aa02
a3a2
a6cf
a558
2a6a
2592
2aec
ac79
a66f
9464
197e
ac34
ad98
aa3f
aac2
a992
1b92
27da
2958
2920
2ba3
2a97
ac72
a45d
289f
2883
aa2e
ae96
a9a4
25cb
a523
a081
2a23
1dff
275c
a9ec
2f00
279d
2487
22da
8e6c
2c18
1a32
2074
23c1
a26b
201c
a135
2525
a90a
234d
1dcb
217d
266c
a98b
a8b1
a8f2
2c44
28bf
a8f3
a4eb
a560
2657
25a0
9c0d
a938
a238
2824
2bd1
a8ea
2905
1f84
ac23
1fe0
2b09
22c1
a781
a3e9
1d99
aaac
acf1
2e3e
23ae
a602
9fc8
1aca
2785
28e9
28c9
2567
2649
a977
2976
2a54
9bb1
2669
25bf
a4c6
a465
a9f0
a195
29bd
9724
26f5
a64e
148f
a6db
2839
a528
a80e
a52a
a4d9
2457
9e62
2937
a8f0
26cc
a660
2b71
a8f6
2800
1e1f
a454
accd
2bb9
2b85
237b
261b
a785
1e5f
a6d8
2849
2804
a389
1baf
ac09
a096
2121
267a
a356
2cca
1d1b
a10f
a88c
2c42
2ee3
a0a9
aa60
ab7e
a523
9ee9
26a8
22da
aa1e
2520
2978
a96e
291d
2176
23af
2807
a8fc
2df5
a5a4
2c52
abf0
2585
22c8
25fb
224a
28b8
ab4b
2062
25f1
a24b
287c
2936
98ef
23a7
9d89
a45e
28f6
2600
2370
aa05
1e38
2d9e
9d99
2968
a894
ab9b
2a52
2503
225b
a747
2666
231f
a55a
a642
21a8
aae5
2109
263d
28f1
a449
a0f1
2c5e
2d9f
a969
215f
a8a9
a9c0
2950
2533
2771
277c
9ee0
a8f5
abfe
2a12
a963
adf6
2450
1fba
2527
a867
21e9
2709
20ea
1f1d
a824
2c90
21b3
2229
28b6
acad
ad54
1f7e
a4a9
a8b4
21b8
a558
25f2
2411
2242
aa5a
a302
2955
a046
a78a
a89a
25fb
2dda
a823
a1ee
283e
a1f8
a01e
98d3
2a90
2c65
a1a5
2d36
a0eb
2adf
a7cf
2ad8
2a65
a239
208b
a3d6
2b76
2cb7
1153
2561
a963
a813
27d9
ab5f
a237
ac50
2d90
a7e6
28aa
27aa
2cfc
2543
ac52
2a81
9e84
ab6b
aa98
2310
ac9e
a62e
2514
adee
9bc5
26f0
2848
abce
2e74
1982
29f2
2dec
2d1a
ad9f
2ecd
30db
a752
a725
9425
28ff
2d18
a456
a203
9e94
ac01
2d44
20f9
2cae
a411
a5a7
2a10
25ad
a05a
25ba
95fb
9de1
a739
a645
a90e
263e
29eb
29e1
2010
a4ae
a91a
a998
2a8f
a3ca
12d0
a9ad
267b
2a18
a357
aabb
2597
286d
a16d
1f53
aaf1
2457
a5ad
25dc
2bfa
9017
ac3d
271e
2b29
1571
a87c
a494
a653
a8fb
ab8d
2314
14ea
2943
2cfa
201b
99c9
1a73
ab90
2c3b
88ef
2adb
ac5f
a70d
a3bb
a694
24ab
ad4a
2aee
a4e3
a572
2b82
9da6
985b
2469
2bdf
9e12
27a5
a7b0
292b
2d3d
a5dd
afce
a05d
2c50
293e
ad17
a56c
ab1c
1ea8
a83e
a991
26ad
a5c8
aa38
ac39
2c37
2d39
2a88
2621
9f44
252a
2956
2a3e
aa85
2a5b
2825
2f5e
240c
a4d5
2504
2d11
2b30
227c
a722
28d8
29b0
2a1b
ac73
275f
a089
24f8
2122
af98
a151
2216
2226
a889
1efe
2195
a6d4
a880
a16e
a41b
2a0f
ab2d
263f
2a04
ac36
2df0
2de3
300f
1b3b
280a
2d38
28b8
a67e
1fd3
a6cc
a3fc
a9f2
a79e
2ace
2a19
1dc8
9eba
a800
284d
2b4b
a9f9
ab18
a939
2660
2632
2636
25fc
22ad
aa19
921b
29d3
2c43
a702
20ff
9f93
a9d9
a9db
9d4b
2653
1954
a1cc
2098
a411
a391
a4e4
98d2
287e
aa5c
a013
a0b5
1cd7
2a27
1c1b
9d6c
ac56
27a8
a970
a2db
a1d4
2950
27b0
2790
ac7c
2506
1d96
2ae1
a73e
2933
2a33
292c
a46f
211e
2a13
2bfc
a8f6
a0a9
a1f0
a926
2046
1766
2be8
2559
2926
26aa
2041
a039
2b72
9f60
25f7
9bff
adfd
aee9
288c
2e50
2859
a483
1b1d
2d3f
9c3b
2c3c
2387
1c21
2dd0
ac11
a45a
270e
265d
2e57
2564
ac69
aa5c
2e14
9c29
a9ca
a6d2
9f9c
aa11
a9ec
28e6
a1f8
289a
a8ad
2530
2e84
a501
2996
2cb1
a6bf
ada7
27c9
294f
25aa
a647
a52a
258b
aaea
ad46
a97e
296d
2772
1260
a8eb
a24a
29ee
a35d
98bf
9fe7
2433
2c2a
29b4
2bf8
286f
9c94
aceb
28d2
2cdd
2094
ade7
286c
27c5
2ae9
aaf5
1ae5
28a8
2ba6
ab13
2a57
2669
aa72
2ac2
2a4d
2d0d
a729
ad6b
abb6
a9df
2273
a65f
aa9e
ac39
25ac
2c3f
28cf
ab37
2a07
aad0
a907
20ab
2aeb
a130
aa22
9dc5
280c
2cb8
1bfb
2c51
2592
2850
a822
24be
2807
2a88
aa76
a793
acc3
ad63
2d85
24eb
1602
a7f4
a86a
298a
178d
2149
9fa1
980f
aebc
acab
a9bd
288a
ab6b
1de9
2875
ac3c
2acf
2e3b
2dda
9b85
280b
a66f
2705
2c0f
9ed9
9f00
17e5
a834
a868
a819
acd2
a873
2c14
2aab
a86c
a317
a7f4
2b29
9c1e
2a09
1840
abbb
a0be
221d
28fb
1fe0
ab8f
a976
a975
aabe
ab47
2f78
aa93
a78e
9b19
1e24
2a3a
2671
28e9
9dd4
1b63
a969
263c
1e4a
24f5
2dd7
286e
a8b6
aac1
a590
1414
9c65
aa8b
293d
8ee9
ab47
25a3
a6a9
269c
a040
a7ff
a676
a913
a251
a443
a986
2984
a9fb
1e5d
27f0
296d
2a0a
a681
9c19
27c2
2526
28c8
a367
2140
a951
273b
e7
a924
a941
a7b8
2992
a425
9d12
1bb8
281e
2c58
2c0d
295a
a397
a6e3
29e9
25e1
a669
ac03
aa5f
a89a
9feb
aa85
a9d9
2007
2c2a
a694
a4e0
2b3f
aa5e
a417
286a
2926
24f5
2c29
2df6
a82f
1f93
a650
a0b7
195b
a944
1d07
aca0
a0e1
a6c6
abd5
a447
ad27
91a3
2ccc
9e77
920d
27dd
9d3f
2c30
2a60
265c
286f
ac90
abb2
26d3
1aa1
aaa7
91d8
2b01
2d79
27fe
2533
2b55
2877
2a43
a46d
2633
25d5
a93a
a811
1a2f
29c1
a98e
a52f
a752
2345
28d9
a77e
a7f4
8ccc
2404
1e0d
2451
2c47
a0bc
2572
a706
2b85
2ac4
2574
a92e
abae
2b23
aa48
a2ee
a8d7
a4cc
a4a4
a2d9
2596
a27a
271a
a802
a593
2141
2b69
a846
1f18
28f0
1d6a
2a36
2ca5
1b79
a6c7
a3af
2a46
a9d0
231b
2310
a530
a42c
9e6c
2706
17c8
9b4c
28e3
2754
28be
2059
2415
2898
2c57
a372
25c3
a6a0
a3f1
a880
198e
a97e
a5ac
1e45
25f4
2429
2596
aa50
2b20
a401
2673
2889
a441
a994
a92f
a8f3
a355
2b13
a4fc
21e3
24dc
2bb3
2798
a288
23c2
a2fc
1c13
29bc
a4c2
2885
a1c8
2933
a8cc
2c00
2875
1ee2
116f
2340
247f
a412
1b1e
a896
a5f6
284b
a869
adf7
2851
9fdf
2a87
296c
26ac
2644
aa80
207f
1cd7
943e
aa46
9387
242f
945c
abc3
ad48
24ae
a835
21c8
9b07
2658
adb2
20cd
1e76
262a
1113
2aab
90c8
29f7
2305
a517
26bc
a1b9
a592
2539
a9e5
29a4
a510
aca9
230f
25fd
265b
2a87
2835
a4f3
aae8
a835
2a7b
2420
276a
aadc
2a11
224c
2443
aa4b
293c
9f6a
282a
2a13
9afd
2127
a62a
1874
288f
2206
a889
a5d5
a0b6
a51a
2912
2a3d
1f7d
acc4
a9e0
27b1
2da1
2d29
24c4
a76b
1f72
a887
aa8c
aa57
a87c
a323
a5ff
a012
a683
2575
a664
2c4f
a818
a65f
2489
28ef
9c59
ae9a
9e1f
a22e
a9d9
ab75
2087
a71e
a2b9
a25f
28cc
292d
a142
a902
2988
a410
a097
aa38
24b6
22db
224b
2aac
a036
2c64
152f
9dec
ae0f
9c5b
a832
907e
a018
adb9
a4ac
1c35
2c6f
25f3
2b39
a889
a573
1dea
2823
274f
a837
255d
a84c
a6b6
2338
2853
29eb
2545
aa68
a8d4
2526
99ab
a505
2241
26d1
2759
a0d4
263e
2d23
2a2f
aa0b
290b
a923
2725
2138
9d2b
2954
21c7
1e16
a044
286b
205d
aaad
9811
a484
9b35
a869
1c45
2706
a86a
267f
a8cb
1b85
a74b
a24b
1ed8
2848
a804
a946
29cb
a6c9
a679
218e
2669
2741
24ac
a95c
2198
a159
9d64
a022
a84d
a0a5
aaa6
296a
2936
2498
9ee6
a5ba
a7ce
9ee6
2aa9
a344
2ab6
274c
a899
2744
27b4
a750
28be
9e19
1c34
a46a
a803
aaa0
a87c
9878
23fa
2470
a54e
258f
28f8
230d
aa96
aa8f
a7bb
247f
aa37
a683
9e44
a9f0
290c
a063
277c
2290
2693
28d1
29a2
a5ce
9f99
9e16
294b
ab1e
a0c2
194e
a570
2abe
2dff
1fd9
25e7
a5a2
20c7
2cee
2da0
2829
a504
200f
23c7
2803
1c89
d7c
a8e5
a701
aa92
9d6a
2838
9f24
a50c
a266
a540
aa23
a7a0
a03e
a9b5
a34a
227b
24fa
a112
aa28
9ca8
a53d
a884
9c2b
1cff
1fbf
1fbc
28da
a454
a50d
2a0d
28cd
15d4
a6c9
a6e2
aadd
2d2e
2c5e
2cac
a963
a3e2
28ee
a3b3
a9da
a69a
a991
a71c
29ff
24f3
a154
23df
24c8
539
98b6
268c
2b86
28c0
ab87
1a6e
ab54
25d9
21ea
9650
2378
a75e
9a7a
275e
99cd
a90d
2818
255b
1911
2414
aa5e
2aa1
a4fa
a86b
a242
1c11
2ad7
a9eb
2910
a337
a82a
9cf5
1b15
29cb
a91f
1e6e
a1ce
9a39
a796
9d74
a809
247b
2b24
200f
a54a
220a
a95a
298e
a5a5
a92c
aa58
27d2
28c5
25d2
2486
a4e2
2725
28ea
1b53
2909
2692
252b
2608
29c5
aa18
29c4
1ba3
2506
a774
a888
1a39
a915
a70b
a6e1
ac50
9c6e
a946
2a93
a5bc
a0b3
9a09
a41c
2964
29c4
a624
98d3
2b27
a575
a9e6
25dc
ac3b
2797
a717
a30e
292c
aaf1
a7be
a843
218c
2991
22ab
243d
d83
24a1
208f
a716
a7f8
9fb6
1709
256e
a904
1de8
a987
2be1
18b1
ad37
a2dc
a0a7
a363
9683
a818
2321
a5f0
2ace
9e83
ac13
25c2
1b79
2280
2291
9d3d
2a3f
aa09
2b5b
a976
a503
2717
1d02
9fde
aa47
1b0e
203c
2a06
2829
a9b0
118d
2714
2950
28ad
1df9
a8f8
a6a7
a402
25fb
a1eb
a954
27a7
246e
234a
9e8f
a570
a4ca
a84b
a7a9
a9f4
a968
a20d
2001
a870
aa98
278e
9267
2b16
297c
297e
23fb
ac06
ab2b
2a9d
a466
1e88
a63e
2745
2776
a466
21e0
a611
298f
a95b
2819
19be
1b7b
26b7
1e3d
2680
24fb
a0b1
996a
a65c
2aae
a4a0
24aa
1b44
2851
2943
86c
a88f
2801
2b95
2b2a
2b80
288a
96cd
1fe8
2809
2951
a7dc
a502
9dac
9ecc
291a
96cc
187a
a5d8
ace5
1914
2864
25b3
a27e
9ece
adb4
a20c
2a52
acd4
2644
ae94
a009
1678
20d5
2952
163e
2148
257b
a5d1
28e4
a8fa
271c
2c55
ab58
1afa
2b7d
29cf
a723
a99a
292a
28f2
a897
a726
2521
259c
a7eb
2597
a902
a58b
aa62
2695
a77a
a65d
a8e0
a231
a701
269c
26d8
991f
29f6
a3c2
28d4
20f3
258e
a555
a146
24d9
1f76
a086
ac06
a863
a95e
2a3d
28f0
ab70
1de3
aa7a
a287
a41d
284e
a45b
a57f
a14e
9f70
1533
a81f
20cc
a906
aa15
acc8
140e
23a5
2a2c
a0e3
aa01
a460
9c3d
a808
2b52
2c9b
16fd
9382
2a06
a386
a83c
21c6
a41b
9848
a40a
ab65
a726
26b0
a74f
ac2e
ae50
26d6
2956
aa39
a810
ab05
a9f9
aab5
2223
244c
a44f
a2e5
d43
a8df
274b
20a2
a58f
2ba8
1d9b
aa56
1457
295a
97a4
2541
29ff
1eee
2b90
2913
a35b
1dbc
2942
21d1
a41f
28a5
aaad
25a7
a476
2224
2745
2183
19aa
27dd
23a5
a3da
a8e6
9b40
a434
1e13
1e05
a3b9
2736
2a73
a543
2477
24ac
2a7d
27b3
a323
a54c
a76d
2bd4
27c1
27a9
1cf9
a63f
2a1a
2aef
2799
1a08
a0f8
a5d4
2182
25ee
aa11
24e8
259c
a588
16a0
2739
213e
a8fb
9518
2728
294b
2755
a880
a53a
aa11
9a1f
2b55
24e6
1b39
a745
2845
934a
214c
a5d0
2692
a7e2
a936
a0f3
8ed7
a722
284a
2375
2b95
a45f
ac0c
ab97
a816
9f7f
a83d
9e8d
a582
9d65
2260
29f1
a8b3
a088
2810
a64e
27e3
a4f0
a88b
24e9
2468
a693
24c1
a805
a61f
9dd1
26c6
a3bf
2712
26ae
a9ec
a4b1
a9f7
a3ac
abe5
a361
21ac
a578
a89a
a863
1be8
2e1a
2919
9e96
a1c9
2598
24ef
2d4e
2637
aa65
2626
2123
224d
aaa1
a8aa
a784
a7c8
a229
aa75
2322
25a7
2818
1d30
1721
a0a7
2773
20e6
2282
25c8
275d
2abb
a60e
2604
1f2c
9c8e
2865
29f1
1e57
1fff
a950
a3fc
2af5
a500
a5b0
20d3
a8a1
293f
a683
2383
a8e3
ab55
a027
2c17
2993
a844
2b89
2382
a361
a781
a7b5
997b
1d94
a811
a943
2553
289a
250e
a012
281f
28e0
a099
2968
8a90
a501
292d
a6df
297f
a1fc
a040
a3a4
aa52
2932
241b
aa29
ac27
9c5d
272b
a8fd
285e
28a5
a9f2
2a0d
a21f
a454
a52b
a27d
a2d8
a82b
2853
a61e
a667
1869
2d41
2871
269d
8d8d
2840
29e9
1e31
21ed
a26d
288d
9b17
a8c8
959a
2513
292b
27fa
a8e4
1dc4
2b9c
aa54
2534
2a58
264c
aca5
a4ec
1c24
2833
9ff0
278b
9a21
a9ad
231a
a965
2353
ad56
ad2f
a2df
24e0
a4eb
1cd4
a4c5
2ab5
2804
2982
2636
ab03
9f80
a5bf
2e1e
2c5d
9894
24c2
2766
2eb1
2b0b
98bd
2a68
2307
2464
21aa
2bda
2996
29f2
1a53
25d9
aa62
111e
a5a9
9a23
1da6
ac18
acd1
ab0a
9b65
a7e8
2460
9fa9
a89f
2710
a04d
a781
a1a5
28b9
2a60
2172
28ee
a4be
26ae
274e
1e49
ab47
a813
f58
a5b8
a369
1b65
a00b
1e87
a46f
a80b
a388
289d
aa36
aba0
1e87
2002
a9cc
218a
a7e1
ac56
19c7
a878
a107
2866
1c27
2a17
9e09
18ff
2596
a304
2b09
a8ee
29a8
a63b
2c40
ab7b
a19d
9ce0
a114
2948
1c8d
a88e
1c84
a533
a086
9b59
2b0f
ac30
22cb
9b33
ac5b
2367
a442
a8cd
a69f
a2fc
a510
a8a7
2722
2d82
2dab
aa04
2d12
24c5
257a
a66b
295b
2175
ac72
ac57
2c16
a80a
94cc
acf8
1d29
8ea1
21e9
9961
ad3e
2694
a0bd
a23a
a5d5
a9b3
aa05
ae09
ac93
aa4d
a8f5
a585
a414
a15e
9e60
ab39
28d9
ad1d
aae2
290e
ab95
25b8
a812
288a
29f9
9ff
2403
a446
a7d6
a95f
a839
240d
9a0d
25d1
a17f
a44a
10ba
2912
9c0e
a571
2de7
2bba
2b85
a7fb
2a90
9930
1c2e
2b01
a4cc
2626
2a85
a84c
2c5b
a7dc
a36d
a8ab
a870
2315
a5bd
a84b
29d9
a4e1
a99f
a6f7
a955
2cea
1dd4
23bf
a494
8aed
a169
1975
a05a
2a0a
2a6a
2cc8
1c69
a925
28b7
1e5e
20b2
a67c
2814
223c
2491
a276
258a
2618
19a9
a89e
2af2
aa00
27fe
2574
2866
24c6
2a07
281b
29f4
a779
a10f
2ad2
19a8
250d
9987
ac0b
adde
a5d2
a90e
2816
a4f8
22d5
a828
aac9
2482
a591
ab3c
a2fd
a89e
26db
a837
ca4
a8bc
97aa
226e
ac61
15cc
26c5
2955
ab99
27d1
1ce2
2492
ab07
28b1
2a60
1eac
a92f
265a
2757
a025
2524
22c1
2456
a5b2
2028
290e
25fd
1254
9b25
24bf
2967
2006
1a4a
a60d
274f
26d0
2a5d
2bcf
a8f0
2195
2a72
2b01
2c28
2194
2d52
287a
a743
a460
2850
2cc9
a4d4
a731
2638
2cf0
9ed3
25e9
18a4
aa99
a9dc
a9ad
24ba
a6a9
28df
a91a
28cc
25f9
254f
287e
1d75
28c6
ab07
a935
228a
27af
a5b8
a6e2
257e
a494
28d8
1ee2
26c2
29b9
1c14
1f6b
2aa6
290e
28ab
26c2
2535
1c64
a26e
abee
9d9a
aa72
aad2
a717
a77e
2909
aabe
2350
a3ca
9282
a8fe
288c
2c85
a9fb
24df
25c5
1968
1a08
9d59
1e1e
2737
25df
2942
2a1a
a628
2357
a447
2ab7
2a91
25a6
294e
aa14
a905
202d
acb4
2a9f
a855
2234
a8f9
a858
aa2f
288d
2af6
2d64
9c21
a4d0
29f2
9f89
281c
1ece
1f62
a86f
a365
2a5b
2512
a2bd
a699
1ead
2ae8
9479
28c5
2a86
a179
a8b6
971f
2a05
2764
2578
23f2
a747
ac0a
23be
1f37
a969
a918
aad9
26a0
a26f
ae15
2c8d
a941
993d
a0b7
28cb
2a1e
a66a
2400
a7ae
2b3c
a6c6
2648
aa16
a325
29d6
2a6c
285f
a8e3
a8b3
9ea6
a9f0
a85b
298c
a261
9fa3
aa8d
2109
a580
a089
2b0d
a461
ac63
a947
1629
1d0e
a956
a865
9dda
204a
26bd
2976
2414
229d
2cb0
2bce
291f
a807
1b38
272d
a453
a653
26cb
aa98
242f
9b44
2153
a141
a845
aa47
a43c
21e8
ab8b
2a04
21b2
abd3
a79f
22ec
27e6
a011
2248
2992
1643
285d
2d11
ac17
1555
27ea
28f0
26ef
a6e4
a367
a80b
1e96
24e5
2d42
aa3c
2082
2c43
249b
a77e
28a0
a0d0
2c09
a61c
a7a0
9fd3
ab2a
a7f1
a368
2067
a44b
a99f
ab7e
ab4b
289e
2470
960f
aa07
ac2d
a6b1
146f
a453
a7c1
ac68
ad1e
2ab8
2b63
ab07
abbc
17e7
2feb
2c42
28c5
2b4c
2b97
2aee
a94f
a878
a5aa
a52e
24e3
a71e
a910
297d
2a95
24fb
ab8d
289b
a47a
20ec
28ed
2619
1fe3
9584
a5d9
a8a8
adc0
1571
a4ed
ab94
acd7
9f31
a4e3
9255
2651
1f8b
a5ba
26da
ac33
2642
27d1
a52e
a54a
2a75
2b45
24f1
213a
a9c6
2205
a94e
2a5f
a893
a42b
28f6
2b34
a2d5
a40d
2222
24a1
943f
a367
1b66
2891
aef6
aa35
ae06
a5ca
a54e
9953
2018
99fd
291a
a4cb
a452
aa20
ad06
ab04
2677
a5f4
a377
aad7
292c
2b12
2601
1929
2acc
2b4b
a580
a4a6
a9ae
a9ac
a79d
a8b6
a291
2642
27da
25ea
a9eb
a7bc
a05c
2d1b
2e90
24b0
2af2
aae0
27e8
a2ed
2555
a745
2b07
1588
2d60
a561
a3fd
2d5b
a19b
1c63
abb0
ac73
17e5
2ced
a579
2c37
2144
29e8
29c4
2cfa
a685
a462
2d63
98ad
a156
2bba
2a0c
2a60
24bc
26ea
a490
ad9f
2419
a126
2445
2437
1e67
a439
aa79
ac53
1eb5
acdd
2445
2be1
18ef
a77d
263e
2927
a4f0
2001
2927
a3fd
2be9
a841
27ef
a32c
aa17
ac0c
ab90
26a3
280e
a084
a917
a7d8
ac57
2c01
2c7e
a46e
aa0e
1961
a0c9
2dc6
ac2b
295c
2285
1499
22d9
aae6
a1f5
2ba5
25e0
a4a7
1f8f
29e9
1c60
1794
aa3f
2d5d
2762
a36e
846e
25d3
2b99
2708
a9af
ad54
a7aa
a60c
adb2
a727
24ee
1a78
2870
2849
2545
a222
27f0
29b1
1f86
aa28
abc2
a479
a7c0
a6e3
280b
22a3
252f
aaa7
a452
295f
2a5e
ac67
acb6
2b54
25ec
2b1e
2bb3
1f96
253a
9d8e
a8cc
ac9a
abc1
2a66
2920
18c2
204f
a45b
23a5
2842
29bc
a49a
2068
2a5d
2972
a587
2879
a93f
25c2
a751
a1dc
a20f
204d
2649
29f3
25c5
adb6
ab74
ae5e
aa68
a87d
241d
2e7e
2c88
28b4
22fa
2e07
a8e8
9ce7
2add
2eca
ac06
2d72
2810
2b54
2991
2ba3
a858
2910
ace4
2638
264c
a0ed
a9da
b00f
1d58
21c2
a9e2
21d5
ab33
a4c2
2c64
227f
acaf
20b2
222c
2ca0
294f
2797
2673
a467
9c34
2bfe
9ff5
24de
256d
201a
25d0
a2f1
a65e
a3aa
aa81
216b
248c
2707
ad2d
ad0e
a4ef
a6a5
a9db
a915
abbf
adb0
2b56
2499
2b53
297f
28d1
2c3f
2c11
24a0
2ed0
2a90
18fe
27dc
ab35
a2c8
2302
ac48
1194
2607
abe2
28a3
2331
a268
a6a0
aa29
2a67
25c4
2f41
2275
ac27
2368
a839
279d
a750
ac6c
a88a
ac8e
a77f
1858
2b2f
27ea
a99a
1b90
2c04
8812
2cc3
2d00
28ce
29fb
274c
aba7
26f4
a13e
2c3b
9a06
ac97
a8e9
a450
a4e2
a818
abee
ac5b
ae1b
aa24
acd8
acad
ad73
abec
ab75
a49b
a9df
aeab
a4ba
a4d5
accb
a9cb
b08c
a991
25ce
a78f
a397
1a5d
2db7
a9a6
aa40
2aa7
29ab
2689
a6a9
2407
a501
2a63
2639
99c3
28a0
28b9
a533
28b7
a55e
25a1
2743
aa16
a6ec
2c7d
2f12
aa25
a2f1
a0f7
2b20
2b30
a923
2bdb
ab26
2af9
22b6
a858
24e3
a6eb
ae92
201c
ab4c
aa92
2701
ac97
aab8
220f
252e
9fc8
2071
a6f6
a0c1
2ace
10b2
2f43
2eae
9d6e
2869
2462
2101
9b14
2cca
29a3
2134
1d43
2769
9701
a999
a9d0
2b2c
2621
a5c3
2271
a2de
2173
2e05
1a10
295f
a2bf
1633
2559
2c72
a8be
a5b3
a804
238e
a41e
2b46
a54f
a6b8
a59a
aad8
28f1
a1ff
9851
2968
2576
a489
aa80
a9d4
ada8
a84e
2944
9e72
a9ee
af54
a0ce
295a
a185
ac22
2032
aa7a
1ffc
ab49
299e
a84c
26ea
236e
2c65
a48d
b060
aaef
24f8
2c95
2cfd
a7e8
a870
a3ae
a9f4
9e7a
a086
299c
2964
28b7
27d5
2a18
282a
a6b8
20d2
a996
a7a3
9b17
282e
a53e
a1fb
2960
ac0c
a844
2c1d
9b58
a0aa
aac8
2a00
202b
2e1a
30b0
2995
16b3
aa62
a9be
a67b
8476
29da
286a
a5c3
24b5
a554
a8fa
20ce
98ab
2501
2ac4
a699
a53d
a9f1
aa18
29f5
a89e
2723
a801
1f28
a06c
2532
a9d7
25fc
2928
9ffa
a4b7
1ff6
a9f4
246f
20e0
af0f
aacf
a7d6
a631
2801
2443
a87c
a69c
a3d5
2ca4
2ab8
2956
2784
a411
211e
aba4
a85c
525
2d48
20f7
29ba
2088
1763
a1d2
2038
1fda
1cf4
2a67
a978
2d00
2b85
28d3
2c61
224e
ab35
acf1
a800
a16e
a724
a511
2749
9e36
2421
2cdc
2511
a727
2590
2af3
2c00
a672
21bd
2967
26fe
220c
a739
a427
ab0c
a862
a55a
291f
25d5
ae4b
2c0e
a845
29d7
2d3e
2aa9
a818
a5d0
2ca3
1f9b
29ff
9dc1
26fc
a2c3
2c41
29d0
2dbd
2871
249f
28ed
a0bb
2279
2773
2941
ab26
a930
2a37
2971
2553
a7ec
1cc2
a435
a9b2
a4b4
ab47
a680
260c
2cd0
13e8
e2c
abd7
28b9
a709
a7cb
a580
225f
247c
1f06
2988
283b
aae4
9f53
a1bb
2441
26b1
2a42
24f0
a93d
a99d
a660
24db
a3bd
a811
9c54
19e1
a43c
298e
207c
9e04
228d
ab5a
a523
2b21
a308
a498
20a8
206c
2967
a014
1c31
285b
a43b
2769
2b82
2505
a49c
1cbf
9927
a1c9
a90c
9f31
2bb7
2148
256c
a931
a6bc
a9cd
ab2a
a99c
29ae
a599
2182
9c59
ab51
2ac3
2b9d
a4fb
a8ce
1dc9
a74b
a214
a945
27ff
a9e4
a6f9
2773
2771
267f
2c40
2343
a4c6
a701
ad1a
1de2
21b0
a407
a612
a912
273b
24f0
2338
2914
a827
aa9c
a8b7
abf2
aa9e
a7fd
a9af
a675
a0ae
a8f8
a78a
a441
a89b
a2f0
a7ac
a2dd
a2da
a7e9
2845
1ed9
a4cd
2a8a
a480
2579
26af
29b0
25de
a869
9fc5
a4de
accb
21e8
a920
9603
2b70
2427
246d
2b3a
287a
2d46
2d6a
282a
901a
1abc
2ea9
2065
2591
2c18
a4db
2538
9a11
2544
227c
a687
aa06
24c7
aa5f
1345
9b22
9a84
a414
2865
2872
289f
27fb
a987
a62e
278d
2473
24a0
27da
2590
28b0
24ef
a498
a7c4
a572
1c2e
281d
265b
28dc
9353
2a21
299a
2227
a2d8
20a3
ac52
9b42
2539
2c92
2ba2
2b2a
a77a
23c1
2931
a9c0
acec
987f
28c6
a1f5
ac01
29ae
8f0a
2758
a0b8
ab42
28f0
aacb
abb2
a649
a834
a48d
24d8
a55f
a8c2
26e1
a845
9c24
1cc6
9bd2
a352
a059
2848
295e
21e5
28ad
9d32
2501
a411
266a
242c
2941
a6e4
25ec
aafd
aa76
2ad9
2811
2640
245f
aa51
29e4
9db2
9c7a
a8f3
2b7b
27e9
2934
a84e
29e6
223a
96eb
2747
a591
a812
233f
a4c1
22e1
9680
255a
ac57
280f
a3ed
a459
2c83
2624
9fb3
a0cd
2e5a
2b6b
2c49
9e76
a38a
24af
a6d4
23b2
2781
24c8
a5f7
a646
243e
2724
2936
ab5a
a770
1f75
2919
1587
2584
1b7d
a3fa
aa2c
24cb
9daf
a903
254b
1a67
9c7c
a869
2316
2838
a666
a9e3
ac38
2a5d
867b
25dc
a62a
a270
aa30
2c11
9d1b
9f23
ab45
209e
2a2d
2b14
223d
a28d
2725
a8dd
24fe
a4d2
2afc
26f1
26cb
2414
2cdf
a037
a921
2933
2292
1dc3
2b3e
27cc
a0dc
2b72
9fb3
1391
9ad8
9ff1
2a10
ad45
2c33
a5fd
a927
aaec
a3cc
a980
2cb6
27b6
2578
a697
1d95
2457
9f11
9f12
22f7
ad15
256b
2c94
1c37
ab95
29c6
a6b9
27b8
aad9
aaee
1ca7
aa01
a59b
2a58
29dc
25e5
aac4
2a59
a1ed
a809
a87d
a503
21fc
a051
aa99
a2e8
a7be
9f4a
24e2
aecf
21af
21be
29c3
a72f
8509
1e67
9f9b
25d5
a4a2
a596
2977
752
2401
28c7
aa86
ab4c
25fe
28ff
26cd
a626
a2c3
a876
a453
9bef
2733
253f
aa11
a900
a7e6
10b3
258e
a9a2
a83d
a482
a586
9eaa
9e8e
a7b7
aa29
289f
1f79
2830
2892
a90c
1d59
26ed
a149
1847
a2ec
28c1
aabd
2450
26a5
a9a0
19ee
aaa4
232f
1ec1
9e3c
2770
a970
aaa9
a3b3
2a2f
1ba5
a70a
ac35
1699
28f2
a4fb
1dce
2152
ab61
a86
acea
24bb
230e
ab80
a9cb
2b0b
a7ef
17fd
211f
26f5
2a83
9b70
9f6a
294f
2084
2c0a
a430
a8bd
2b27
a3be
a71d
278b
ac83
2784
1d9e
a9ef
9ef3
25b5
2473
a929
aa82
2a88
2920
26b0
a189
2869
9c72
2c25
a7a8
ac22
aba6
a721
22e7
a893
73
282b
93f6
24fe
25a5
a79c
2cdd
a8b4
a5cb
280e
29bd
2a09
24eb
9cdc
a86a
ac3c
1ffe
2533
a7a4
a86d
a4de
a619
2808
a195
24cb
270e
2985
a089
a9bb
95ca
a313
ab7b
2209
95fc
a5f2
ab92
aaad
9eef
a7a7
2948
a89a
270c
aa04
26bf
a802
aa57
a246
2c28
a281
2c40
2528
a91b
25f1
26d3
2c66
2951
a82d
a33e
9e62
a431
291f
95a3
a90f
1367
15a6
2a73
2a3f
a8e5
9ed1
227c
a1d8
27ff
2603
29ee
1e25
a9d4
a4dc
204f
a846
273c
1db9
19ba
2011
a704
9c39
2754
a350
a6d0
9122
978e
2780
28c7
aa68
aa06
abaa
1ae0
9099
a834
a8a6
a0c2
a963
a6d9
a1da
23b3
a34c
2b4f
9a52
2541
a6cd
a7ac
a4cc
229d
139a
a899
27e6
2149
a44e
9c9f
2687
230a
2919
227b
a3c4
27ca
9548
93e3
255d
9d5c
a06e
a71a
2d51
a423
a5c0
a2ec
a4aa
a537
a615
2733
9839
a601
2935
2097
2058
2762
a7d3
273b
a94d
2a0d
26a3
a82f
21ed
18b9
9e0d
a9b3
a55a
2a61
21f4
a8f6
1a3c
19c5
29e6
aa06
986f
9c12
a884
2446
a93a
28d2
2549
2518
29e9
2969
273b
a87c
a8dc
a7f8
27e3
aa01
231b
a3b8
a716
2a09
ac2e
293a
a8fe
260a
26e1
29cf
22ce
121c
2813
a613
28a5
29cf
2b94
2ce3
a87a
aa7e
a901
a8b1
2eb2
8edd
2879
a5a8
9730
2423
9807
a024
a44d
20a8
a80f
a6d1
251f
282f
280d
a1f6
241d
2afe
272c
1b13
9fc9
a720
a665
a0a1
2586
25a4
abfd
a0cf
92f6
a01a
2836
a79e
290c
a9f6
a841
2674
a65f
1961
a97a
9da8
9b73
24b4
2922
290e
2959
a58e
a38e
2a4c
2390
a071
9ea7
ade8
9f2f
a113
1fbb
2666
2636
2660
2a06
273d
a90f
251e
a2ce
2add
21eb
9c3d
2145
242b
2b68
a4cf
2850
acbd
98b8
29d1
ad02
2541
a8bf
1dff
25e2
29e3
a80d
af76
a58c
2a0d
2c14
a81a
ada9
1b65
a27b
a8bb
2ab3
28d0
a27a
9f75
2b5d
2996
a443
a826
289b
2a30
a2a5
2045
a7b0
9d09
9dc9
a817
a057
220a
a793
a9a9
aa6f
a5fe
a1ca
a1d1
1a0a
1c01
291a
a211
2622
9592
a12a
a07c
261f
a914
20f2
a6b4
a795
aa8a
a02f
259f
2b50
24f2
a318
1569
2cf6
aa8f
a3b9
a12f
a5d8
2bfb
a959
a83c
1fcd
ab49
2d0e
2999
2c61
aafb
ad60
9123
26a8
a6e8
a87e
a615
abd7
29ee
281f
24ff
2a8b
1a11
2466
2855
a76b
ad14
9d97
aa99
2c51
a992
a642
2b9e
2bf9
96fd
a419
aa7c
2a1a
28c0
a9c4
a802
adc9
a9bd
a8a7
acaf
a801
aaab
ab1f
ab98
a958
a0f0
ac02
2473
a123
aac5
a000
adb8
a93e
ad60
ad00
292f
a0bb
28b0
a865
285d
9608
a84f
a9a1
a7de
1dc7
28f7
a66b
9e49
2d85
2e65
2a8e
2a3f
29a3
a58c
1f5e
a1e7
a2bd
a920
a5e7
aa27
2053
a8aa
278e
a296
1dc1
abf5
aaf4
9a72
1521
a66f
ac1b
2b26
a469
2b77
a89f
261f
2da3
2c8c
a4ed
2574
1fbd
a47b
2c10
a394
add2
a824
2956
2459
25f2
abdb
a7c3
2c4d
209b
2d6b
21e8
ac55
a688
28cb
24f0
a9dc
2e32
2b8a
2c72
aa86
241b
8571
a9b0
2bfc
a024
a47e
83df
a464
a1a3
aa3f
9e15
a222
295b
a31f
aa01
2a1f
acdc
28b6
2945
abd2
a5a5
9f12
2cb7
272d
281f
28b8
a4b9
a40a
a18f
2328
1d9c
ab70
a644
aacd
a2fc
270a
a7b4
a463
a714
a4e7
2800
aa3c
af2d
a54f
2cc1
9cf5
21bd
1c1c
2619
2c29
25a8
2364
2bab
a8e3
2996
11c2
2518
2bb1
25fe
2a19
2941
ac54
218f
a8a9
2bbf
aad1
a02b
2766
ace2
2a74
2938
24fd
9d58
2b43
a404
a9de
a8a7
2484
a52b
9749
a0ba
9f90
29da
a7c0
a614
23b6
ac8b
2b4b
2a5e
25a5
a3c0
1410
28f3
2d7c
293c
245f
2c6e
2cb0
1d78
2918
2707
1cd0
2814
2a34
2c4f
a79e
2c2c
23e3
a939
285d
a095
a6d1
27f3
2510
2400
19c4
a1f1
2292
293a
26fe
a7f5
a471
a617
aa49
a28c
ab38
a7ae
2a3d
2c48
2d23
aa57
a871
a479
2aac
1f43
a4a5
ac1f
2180
ab20
a54a
9e4a
a918
9a35
a721
1e51
ad7e
1b53
2911
1c27
2257
1958
1c5
2864
2ac9
a646
9e1b
1e4c
29e6
200d
2c78
95e8
ad06
2332
2bc2
21e6
a609
a205
2647
2440
2a4e
2159
2550
ac73
9380
9deb
20fb
a578
2c9a
2c32
a879
acda
2a1e
2c2d
a207
2760
acc6
a930
9c0a
9818
a510
22b9
1df3
219c
2a83
9e32
27b6
9cfe
a439
a435
a5c2
a034
223f
a997
20a8
282c
a5a9
a735
2480
a1ef
a273
25f9
2c06
aa06
2901
28b4
2cf2
2c6b
9c1c
a7cc
a932
ab70
2f25
2408
a4d5
a5e4
ae23
a9fa
29da
a447
229d
21b3
231b
2173
aa77
a3aa
2ae0
27c2
2a08
a916
a90b
a5bd
9e5f
a414
2562
28d2
a77b
27c6
a871
a432
2c54
e29
aa0c
a971
a1d3
a7b4
27ca
aa22
2321
255a
2935
2451
a539
a9c2
1d8b
28fe
a673
2406
2ba3
915d
a3a4
29f6
2c77
2846
2ad7
a4b1
296d
253d
2961
aa51
24dd
9f04
a8cb
aeea
2a68
a992
2596
29f6
a894
a593
aab9
29d7
a605
2947
a1d9
a961
2585
9484
ab6a
a753
2862
25c5
2b39
ac3f
a8b4
a9b6
253b
23be
ae6f
a7cc
1ca5
a9d2
a96d
2a4a
2cd7
a470
280a
2e99
2be2
a0e3
2c18
271c
95bd
27e2
ad5a
1d65
a30d
a7e3
ad0b
2809
2a2e
a24b
28c4
1cad
2960
275f
abb2
a928
a484
ac0a
b090
a55a
a712
aae8
a7ca
a72f
27e7
a48b
a573
a295
2c2d
2c3f
a86d
21d8
2425
2808
a8dd
a9ba
a853
a54f
223e
a068
2a72
aa0e
2604
ab8d
2953
2bc8
2766
a259
2257
aaa0
2f8c
27be
245f
2cd6
2404
a675
2477
9ae9
217e
289d
ac23
1ea3
259a
a848
9dbe
1605
a839
22ec
293c
a3e9
aaa2
a942
2998
2b2c
2924
2ae9
2b24
207a
2021
265f
a839
2485
a984
1b59
22a0
a918
2595
a9f4
a7ca
ab80
2a20
2b53
2db5
20da
a19c
9cad
2b77
a099
2b43
a761
26fa
27c3
2a90
a02e
ac87
250f
2563
a345
2c01
217e
a87d
aca3
184c
a492
236c
a41d
2bbf
21d2
a5e4
a8c3
ad8f
a6b3
a05a
a9d4
290c
a8db
ab3c
291e
2a0f
9aed
a88c
adc0
a3b2
2780
a697
a547
2525
1e11
266d
28cb
ae16
28f2
ad06
9dd7
2682
978b
a8fe
adb9
a9d6
a749
a882
2a1d
2cf8
a7a4
1d46
ab55
a6ce
a935
29c8
a5b1
28c7
22e2
a25d
ac36
eb1
abc
215d
aba8
2588
a706
a92b
24a8
2656
2ac1
2522
2ebb
313c
2a3a
2953
1ec8
2989
aaa9
ab29
2635
255f
2ced
2d55
21e6
a61e
285d
a47a
100b
2992
90cf
a7cd
a496
ac11
a1fc
aa65
205a
aaa1
a489
2b0b
1834
29db
225d
a6bb
2c31
236b
2894
2bd2
2d24
9e84
b014
ac85
2584
9cb8
151d
18e2
a4a1
18c3
a988
288a
a534
2b50
2ca5
28f8
8ec8
a9f1
a419
286e
a787
2868
209c
2696
28e2
25aa
28d7
21e3
a5bd
a9d0
a70d
ac93
a363
aa92
a86a
23f8
a733
2506
a54d
2cc0
222b
a6c9
2b3f
2b37
27f1
abba
af8d
1dc4
298e
a0d3
2c71
1f84
a32b
2d07
2a14
a9f5
a1d3
a83b
9289
17d6
a1bc
a27a
a62a
a36d
a88e
1a44
2709
2b7a
a0f3
2a91
2de1
9a9b
a5e2
a4c3
2a79
22b1
2a44
a9c0
ae13
2371
2c84
29ae
2592
a761
a8a3
a090
2c13
922d
a499
ab1a
25d9
a889
25ad
1d20
c78
2600
2757
a4f5
1bbf
29fe
25f0
2136
2597
a3c3
2460
a7ad
1ded
a665
aa59
a559
a962
aa61
aa04
a8fc
a8e8
2a90
9a3c
2821
2897
a74f
a539
a302
a7b7
26e1
a827
2a85
237a
a5d9
9b7e
a6ed
a907
29eb
227a
2303
a233
1bac
2cb1
24dc
2534
290f
2930
a5e0
a380
24a8
26ac
2a79
a006
2cc8
2b72
a905
25db
a67c
2b0a
a78b
9c05
a40b
ad31
a7be
2720
aaec
2b76
a4b5
a8a5
9a92
29b7
ab7c
a1c9
2a05
24ca
a1c0
a0b5
2533
2dda
a741
2480
2aa4
2c23
21b1
a676
abdc
25b6
2516
2748
aa42
a653
a41a
2a07
296e
1b15
9c56
a988
a49d
aaeb
a85d
a938
a95c
abdd
b060
a585
aa5f
a9dd
a66d
2c86
2a24
a222
a829
a975
2c2e
a577
a615
1c72
a6da
2898
90b9
a689
2898
28a2
2922
a48d
a88e
2838
2406
25ce
2883
a6f9
aa5c
291c
27e5
a53d
a5e6
a099
2adb
a91d
a76c
25c0
ac19
2b16
ab42
19b2
aa34
1f9e
2077
a8bc
256a
9ce4
aad7
1b71
28af
26f8
2c8c
a924
9f85
269b
24af
2492
26cc
216a
2aa8
aa65
24e3
a03a
9856
a884
aac8
a932
29c7
a9ce
a5f8
2161
29c1
a815
228b
26aa
25eb
a15d
278e
2245
aa40
a871
a8f0
a33e
a643
28b5
a5a8
2803
a393
a763
9c86
2640
a6e0
1f7c
28f7
9f9a
a997
a457
2249
a2b5
a84d
2a04
2925
2032
a8e5
a9ef
29b0
a3e0
2844
2719
2794
2b27
2a8d
211f
2649
2aad
a198
2407
a535
288e
24f7
aa1d
2a24
a4d4
ac39
9bd8
a374
a633
28b4
a707
2170
1930
2aee
2588
a490
24eb
a67f
102a
28c8
aa27
a47f
2972
2816
26fb
ad8f
a8b8
2882
a36d
266c
ab8c
146c
ac03
1fb1
a6b9
2593
1e15
9fbc
21c0
2400
2be8
aa47
a9e3
2329
a849
a87c
1730
a82e
29cf
2136
a88c
266c
a824
27b7
2898
a644
277a
97f5
2942
25ac
2a27
a7f8
1fae
298a
1eb3
a5a0
2873
2891
24ed
26cf
25cf
a6f7
a11e
2b84
2047
9e26
2533
ab45
aa94
909
20db
2c77
a802
abb2
a133
2745
282a
2c12
25b0
a8da
abb1
946a
25e6
1e69
2408
a719
ad4b
aab7
2869
2a9f
2acd
a9d4
a77b
2744
2428
a5f4
acef
abd8
27a6
2830
989e
a4b1
20eb
a86c
22b5
2a6e
a834
9bdf
a6d0
24b9
9a41
a81e
2e1c
ab9c
ab2f
ab51
9bda
a554
2919
2c76
a5f5
270c
a522
2822
205a
294f
a4aa
ab43
20a8
8e47
2920
2c68
2135
a9e1
a73d
29c1
a416
28fa
a668
a04f
a878
a47a
219c
ab4b
2763
2a9b
2407
add3
2527
a442
a1b6
a708
29f4
a420
2d1f
2e36
1d0d
a217
a395
2953
297b
29f5
2b3c
ab6d
29e5
253a
9715
268a
a909
a982
2020
286e
2211
a810
a602
9e0f
2a5a
2a56
9981
aaf9
9421
224d
2a93
a896
a602
ad47
abad
2b0f
a961
a47f
ab53
9f78
247d
a49c
1e3a
2b53
a690
ab44
98e5
aa64
219f
1e68
a18e
a402
acff
2d51
abdb
29bf
a953
18b9
2ac6
24b5
244e
28c7
2c3c
2caf
2087
24e5
a45c
a22c
1fa3
2047
a8d8
278b
23a9
2738
2d0b
23b1
2881
a040
adf8
9dd6
1f6d
2956
2924
adc1
a9f4
a6a0
a49e
ac9b
a630
a4f9
a72f
21f1
20be
234a
25ed
27cf
a85d
254b
26c7
9df8
968f
1f73
2eb4
294c
2030
a86b
2b1c
2d1b
a684
a8ad
2832
a7c9
22fe
a55c
a4ec
2ab6
a499
a687
a97e
afdc
1f4b
27b7
261d
a51d
ae59
aaab
a463
2323
aca6
2c93
2bcb
a94f
ab75
2085
2d5e
25fe
2c8c
a829
29db
abaa
2145
a012
ab84
2a70
2944
9e3f
27a2
a275
a4d7
2e9e
22e7
8267
9e94
2a7c
aa93
9cbb
ad88
a485
22af
25cc
aab0
2ac0
29da
2ba9
2d83
2238
2550
a237
2d4f
a8a8
187b
a3dd
aae7
2634
ab68
a8ef
283d
b01c
a925
ad1f
270d
add7
a37c
2c85
abce
a515
2922
2f4d
aa29
1d1a
a2c6
a68d
2901
a2fe
2b9b
aa13
1ea5
293e
9fbb
a501
ac4f
243c
28b6
9f10
28b4
a2a9
a6bc
2c0b
248b
a849
aace
2092
2d4e
2d33
2a2a
22e1
201c
54d
9eee
a974
1ca4
a88b
9944
2906
abd9
a0ce
a420
a852
a2e1
a9af
2ab1
a800
aa26
be2
2c43
28ee
2856
2ca1
2652
2456
a432
a076
a39b
ac70
b06d
28e4
239c
aa41
a57d
a771
179e
a9e0
2ae8
aa5e
2ce2
2454
a788
2c7b
b14e
2a94
2b64
2de9
2daf
accc
9b51
aa89
246c
2b27
2834
a5dd
a687
2884
28de
27aa
f50
a24c
aa77
a574
a9aa
a96d
a508
9e8d
9c12
a978
8c5f
23cc
2586
2c59
2969
292e
26da
aa5e
9d01
a3e7
a549
282f
a819
2847
97f8
a657
a3b4
287b
ac48
98a2
2ab5
23e0
a0d8
a058
2d32
2800
a4af
2a17
a094
a995
a555
ac41
27e8
a71e
1009
28b8
ab4e
251a
1e1f
aba0
2cd0
269a
2cfd
273d
a5b4
2c47
a159
9c94
1e5d
b100
ad38
a9d6
29f8
2747
13eb
9e6f
2d1a
8491
a88b
ac2a
acf6
ae9e
1a9c
a987
9e56
a697
a1f0
ab15
2bb5
29f7
acd9
a6d9
1e3c
2680
aa96
a45b
2cea
1c23
1fac
2903
249c
1d33
a90e
978a
a9b9
a8a9
a574
a1bc
28d1
219b
a38e
a7f1
95a1
a6fd
a9fd
2bf9
2200
a22c
25a3
257d
a838
25ed
241c
2a58
ada4
a651
aea4
9c27
20c3
a4ae
2200
a724
262b
a0d8
ab02
a211
25ff
a84e
2851
a488
a29a
a446
1bd0
1da6
1ef9
28a9
a4bf
29b7
2b65
a3b4
2a09
1fad
25d0
2324
2a46
245e
a270
1cb7
a497
21aa
a02f
a19e
a58c
a885
2958
2743
23b6
a7b5
22f5
2620
9e94
aa82
285b
ab4c
a805
24de
2437
a97f
a849
29ab
a2b9
a70e
1ff0
a0eb
23f1
1fa6
a102
a293
2995
2509
aaa9
2c16
a293
ac5a
a424
ae47
1844
21fe
ab36
200e
ad10
293e
a3f6
ab07
2925
29e1
a973
972a
a6d9
25c3
244b
2870
9213
299c
a82e
a399
2025
20a8
a49c
ac0d
2cff
28e2
1f85
1f14
a9a7
2c0e
2632
28d1
aa50
2060
9cd9
20d5
a8ab
a62f
aa39
a947
aa28
26f8
2489
2d5c
9af9
ad80
2a66
2889
1873
a771
2a48
a4bd
a53f
ac27
2a19
25fe
abd8
28a0
22bb
253e
2943
a745
2076
9b2b
2cd1
25a6
2b87
ac36
ac73
2d30
2942
a967
1b60
2a12
a474
2778
240e
a146
2afe
a6ad
206d
25a9
9a87
2970
a272
15a3
28c1
a63f
2779
22f4
a23d
2778
ac31
99f7
ad66
a55e
aa23
9967
2abf
ac07
2959
26ec
2680
1f37
2a58
2cc4
a13a
a037
9a7f
a88c
22c9
8ba3
ace5
a655
224d
abe1
a8d4
a918
2c7d
aa81
1764
a69e
9eab
a698
a9ab
27d3
227c
a80f
adb3
243b
a82c
a8a8
a8e2
a877
261b
a8b5
26c3
2631
23ea
af06
a8a3
9e86
a9da
1c3b
ac38
94bd
85fc
a85e
a3dc
1da8
a63a
25fd
a6b5
290f
27e9
a08a
2720
1888
28c4
a3b6
2837
2725
a866
2776
29e6
2527
24ba
ab1a
1251
1eaa
28c6
22bb
acd0
27fc
227e
2681
2ae7
1824
2b43
a8f4
2962
8da9
ab8c
a85c
25c8
2b23
1143
ab4d
a3c9
a514
a3dc
2b49
2a14
20b5
2978
2731
9b41
2385
a87b
2c3e
d28
a3ea
a27d
a675
20e7
236d
2878
28fb
29cd
a40e
ab95
a726
a8d0
a94c
9ea1
ad40
aa7c
ad04
25a0
287e
9942
26c3
21e2
2dd0
291c
28d0
a974
a944
a086
a9c1
2327
22fc
a094
184a
a7d1
a935
288e
a545
23ae
a168
2838
197e
a67c
a838
2e0a
a7e5
a82e
28f4
a85f
a7e9
28f9
2981
a81a
245a
ab57
a81b
ac6c
2706
2d33
260e
1d7d
2848
28ce
258f
2845
8580
a542
a510
2a65
a8ba
ac64
9c25
255b
2541
1289
1aa8
17d0
2327
aa4a
2c23
2b2e
1875
29f9
a558
a82b
233c
999a
a8a7
ab9c
2910
2489
7dd
aae4
a9bc
2ccd
2d1d
267d
2d80
a8f9
2133
ad32
2c1b
1ff2
a817
2632
2509
a758
225c
ac31
acb6
1fde
241d
9ec0
2b7f
a4f4
250b
a635
a83f
2543
2be4
2ccc
290d
a94d
1c27
a67b
21ee
2452
acc6
acb3
ad4e
2512
a827
29b2
223f
a634
2403
aac6
aa44
2194
1e73
23ce
2630
2cce
aaea
2b0a
2aaf
2b2a
a59e
1c2f
1c38
2963
283a
27fb
252b
a63c
211b
282d
a94a
2564
2494
a9eb
1c1e
1ed6
a63c
26c8
27c1
1aa0
2856
1a53
a4eb
2732
204f
1373
2767
a879
2642
a03d
259f
9a50
29da
9703
a6b6
a79f
2454
230d
a969
2789
a1d8
1fdc
1ea8
1fe8
a263
aac6
14c9
ac0f
1906
a5eb
2672
a7c6
a0a9
2575
96f0
201a
a887
aaf6
a6bc
9b68
2a44
ac10
2751
180e
a8ac
28cd
25a8
1edf
ab44
2302
2880
a43d
1a88
a955
ac59
ab52
8c74
2170
a329
a954
edb
289e
1e40
a197
2989
9b14
a67c
ab35
a5c2
28fa
2d27
ac87
a9c8
258b
2ba0
282e
270c
9f93
9799
9b04
1cf
a92d
2698
2438
a857
a7a1
a4fe
2d22
2c2c
a5f4
20e0
1f3e
2bc2
2ca2
1802
a505
28b5
a429
a951
9472
9e8a
2a31
235d
ad3d
2265
2bd8
2642
1f70
a6a9
26c6
29c9
2f73
221f
a80c
29a0
22ce
a79c
8717
29b0
aa4d
1bbd
a8d2
a97a
a867
218a
292e
9d84
238b
a418
a057
a661
2a31
251d
2a2b
a9c8
265b
a5cb
2be9
a5a8
a8c1
a598
28f2
a64c
2125
268e
a431
1b69
11d3
2afe
26f2
a47b
26d9
889e
a342
2c0f
a2eb
1c63
a1e2
2704
27a6
ac33
aa78
258b
a490
20a6
25d4
a7d4
9e77
a36f
a901
a86e
2540
2a68
a7eb
235f
27af
2ac1
a024
aa93
2971
2429
10e9
aa6f
2b66
29fe
24f1
2569
a491
287d
1c52
2886
2c17
a85a
aaa7
a18c
a163
21b3
2993
a5ba
a55c
a7c7
27cb
a866
a726
1d89
a788
2a04
9ab4
2891
a511
2e0f
2841
222f
a435
acdd
a6da
171d
a27d
a7d5
a49b
2a91
254b
ab18
23ea
2def
27bc
2af6
9b27
a8d4
2a56
2c36
9fd9
2b66
9b10
aa6d
2897
ac4d
ad0b
ab92
208c
2a12
277c
a5e4
c29
2992
aab9
20e3
a138
234f
2d20
2b2c
a8d6
2507
1d39
2c2b
2b2d
2c4c
a853
293e
ac91
a795
aaa4
2395
a8df
a9fe
2441
1042
a22d
2b10
ab8d
abd9
285c
21e1
948f
22ba
a841
288b
1cd9
255e
28bd
a4f2
ac92
1d53
2682
2761
a8f3
17b0
ab23
aa3c
9dfc
26fa
a9a7
add4
99e6
294d
a4b8
a98b
aa2e
ae47
2b5f
2bce
297f
2c1e
27c7
2a70
246d
ab64
259a
24c7
aab4
ac3d
a804
933b
9cb0
253e
ac83
a4db
a1a2
2a0b
95f3
a686
2d2c
a61b
9d7e
9c4e
209e
2509
a522
a0f4
a626
2d4a
9c04
2ab5
a0f9
a98a
29e1
20d2
29b4
a6f2
2325
2042
aa2a
aacd
2028
a7d4
a851
27f9
a96b
256f
27ea
a494
a931
2151
9f64
242b
a0d2
2226
a076
a070
280a
aa06
accb
a220
ad5a
9c76
ac26
a29b
a84c
ac95
1dc3
96d1
b035
adca
9cc0
a93e
2aea
a932
ace8
aaaf
9e8e
284a
a2d6
920e
24f2
2a8a
244f
2593
2a2c
2c60
23d7
a30b
9b5d
2b85
1e9f
aba9
a5eb
2d31
178a
2ad6
9d7c
28d6
242c
2c2b
a485
25a2
25c7
195b
2819
29df
aad1
a536
a58c
296b
1dcb
2348
23fe
25f3
a8f3
a527
209a
1fd3
2157
aad9
2b48
a5e5
ad7f
2b41
a69d
94f2
28ff
a552
2b4c
ad95
20eb
a63f
289c
2434
179c
2a4e
ab1e
acd1
a2de
2533
179d
a16d
2749
2cfb
2ded
a0a6
2395
ab15
a56d
a62e
abca
26f6
a377
2713
2604
96dd
21d6
1d9e
ac61
a1f1
9aad
aae2
a88d
a4d3
a8b9
a02f
ae07
a47c
2176
962b
ac03
aba6
2444
2894
b084
adfe
1d7d
2309
ac44
a743
2cd1
2bb6
227b
27f9
29f3
2e78
2866
28f5
a8dd
2198
268c
2aa3
a5a4
2589
174a
a6c9
95e1
2a0f
a28e
2c7f
2e0b
a2e0
286f
2dfe
2d20
2298
a215
2422
a6b5
aafe
207d
a423
a015
1e3a
8e12
19fb
a460
a7da
82e1
2c30
a08c
282a
21e1
a167
aa23
23d5
a2eb
a4f8
14fd
28ca
ac6f
24c8
2c2e
2ecd
2d5a
274f
aa5b
2af7
2576
2357
a412
a5f0
955c
2aa8
a6af
a312
219b
a7db
a280
acd5
a949
2197
9d2e
297e
a7b5
a324
27a7
2da4
a2cf
2ba8
207f
1de6
2731
a0af
a444
1b97
a8fd
231b
295c
aa99
a510
2657
2d0f
a64f
a311
ac6d
ab61
2d88
26a6
abb9
a67b
a860
2ddb
9572
2aa7
2c7a
a940
a8bd
a24d
29ab
a505
20c5
24ae
1d0c
a313
a208
9638
ab20
2417
a87e
2941
9a7c
aa65
a482
97bf
ac08
a801
278a
29b8
a909
1495
2828
2c77
a6ba
9d78
1851
a0e4
24a3
2596
a463
a456
a7c6
2788
aad8
2aae
a53a
aa7b
29c6
ae73
2ce3
a489
2815
291a
2c20
a442
ac42
a4cf
2898
2bd2
a441
1454
240f
a06d
aa53
27a9
bac
9f27
ac1f
2634
29a1
a62d
9cfa
a20c
2935
2a63
1b00
2189
a525
a41f
2a92
29a3
a900
a5ac
2caa
265c
a446
231c
a5fc
ac78
a0af
2116
a592
acb5
1ce8
a038
2929
a8ca
2c46
2884
abb3
a592
a593
2b61
a581
28f7
225f
1f0e
1e78
2065
1ee8
2066
aab5
a89f
a937
2e48
2886
25e3
a956
2816
2cdd
1d82
ac01
ab43
aa31
23e3
2629
a6ad
2985
a59a
287a
2d3c
2812
a56e
272c
2249
a6f4
a554
1f1a
29e6
2a5e
ab4d
ab62
1eab
29fb
21a3
a640
21cd
264a
a11d
1ac5
a6c9
1f9a
24d1
2716
a433
a984
9fc6
a9c7
a8d6
149e
a9b5
2818
a0cf
a85a
a984
a65c
258c
ab4b
ac51
aaa4
a045
21af
2819
20b1
a932
2aab
28e2
25a5
2876
a462
a805
a4e7
a0e8
2410
a663
9e39
a468
a42c
a8b7
23d1
272c
28ee
283c
2742
28b1
2977
22b9
353
a335
aa3f
a5c4
1eb1
a973
23a2
a66a
a4cc
a8d2
a8c7
2540
1ee0
a1de
2629
29ec
2b6a
2014
a769
2721
a9c2
2940
a598
29bb
2535
aaa8
975b
a8f3
a629
1bff
aa63
28ae
23b3
28fc
a931
2a78
1d57
1c49
95a7
a451
a039
2976
a56b
a1c7
270b
a8b0
9dbc
2595
2815
aa43
28de
28be
9fdb
a99c
17e2
28b6
2821
a6a0
28ad
2807
292a
2c77
189b
2264
28ab
ac0c
2910
98a8
2b1a
2504
ad00
a886
a76e
a79a
9b9f
2812
2492
1ebe
a91b
196c
2631
aaee
25a8
a47b
2164
a3ac
2815
2dfe
a9fd
255a
a934
2126
2647
ab0d
acff
9c8d
a917
a9c6
a5b7
9b30
20a6
2223
29ed
23a7
ac61
a899
258f
a6d9
24fb
9f58
1f82
a8f1
aee9
a748
2643
a617
a449
9e21
ab3b
a7d5
a4e1
94d6
a3d8
2bcd
2757
aaad
2acd
2b1c
a40e
1fa4
2676
2cab
a11f
a75d
a1c2
ac0b
aa4b
a0b0
a749
ac2c
11d0
a958
21a3
25bd
293e
2388
27ca
a4a2
2c2e
a101
a25f
9f75
2a1d
2904
a266
2c64
2b70
9c9d
20f2
1545
a556
2434
a49b
211c
a777
a1f1
a441
a92f
a85e
2882
a810
a547
aab3
2918
9fe3
21a9
a1c8
a99c
a8c9
1369
2d79
1b62
a55f
296f
a843
a04d
a8ba
2415
a770
1d35
9c93
27d3
29a9
a8ab
a84d
2451
a1c9
1c8c
25b8
28ce
28eb
93e8
a099
aa5f
a8a6
2819
29dd
a501
28f3
2901
aa5a
a412
2322
a9e8
a284
2b17
1747
29a3
a802
18a2
ab44
2225
2034
a81f
a022
ac20
a941
26ba
a9c8
2498
285a
2a17
9b2b
22df
a368
29da
2402
a176
a788
20e3
2957
a8f0
a952
a5b2
218e
294d
a3d7
2cf4
a395
2829
2a25
ac92
9c75
2203
a49d
27c2
a6e7
a827
a489
26d9
2b74
23e6
24da
a0a2
21a7
a5fd
2a1e
a0f6
2798
21d8
255b
292f
2ade
580
a260
273a
2247
901d
a704
2927
a6e8
27fb
a82c
a23b
2691
9d82
2492
487
2355
2a44
2911
1d55
25d4
9bb6
a833
99d6
254a
a9b6
1119
2127
20f6
2926
aac2
2acd
2423
a65b
a9de
a8f2
abac
264f
2a82
a562
299d
a88d
2135
a893
277d
2974
a8c1
2750
2844
269e
23f5
a19a
23e6
23f3
a9a8
ac1e
ab1e
9dab
27b3
a688
1cee
1ca0
a90a
2974
28d5
9d22
a937
a70a
2d75
a58d
22a5
a976
a8a3
1cc1
2474
ac26
aa1b
247d
2a79
2873
289c
a2e2
a8ac
1f01
2555
2942
291c
a9b5
1d3d
278f
a8bb
a559
26b2
25d7
24a3
9e9c
1485
27d4
239c
2bb7
a893
a04b
2066
28da
27b5
a63f
2736
a7b0
28c9
232b
a085
2297
26eb
256b
a34f
a8bf
adca
2968
173d
aa9d
210d
277a
2008
2b22
2b92
977c
9858
a251
2272
2cd8
29d6
264a
2827
a901
26e4
a4b6
2606
2043
a54b
2bd5
29ed
92c1
a23e
280a
2509
190c
2389
a9f7
29f1
2805
419
a531
a173
25c1
aa6f
a960
2278
a9a4
1af5
2738
2aa4
2226
21b2
2282
2a2d
a319
1317
2982
a0b1
24aa
a956
26e0
9fd2
a84d
257e
abbc
a905
2377
9c48
a25a
a925
9cb4
2924
a411
29c0
a990
ab89
a896
a76f
2750
a5e8
a9fa
2662
a2fd
2907
2b5c
286e
a4c2
23ae
abf6
a8c7
a289
a6c6
a4df
a651
a452
2165
2863
aded
a509
a876
a211
9934
20b7
1f6a
a9aa
a7a9
286e
a93a
abf6
25c9
ac3a
a641
9f9b
2c96
ad0f
911c
898a
2357
2921
28b6
a4d3
aa36
a236
a523
2c46
a5b9
ad21
aa01
ad8b
275b
21ad
a515
a732
2b4a
2860
a80d
a5e1
2617
a3a9
a8d6
9a34
20ca
abe4
28bc
2a8e
a3d2
2b8c
2c0e
2e57
28b7
a860
9fff
2944
aa0
a93a
247d
a939
a72d
a20f
a15a
ad30
abc4
aa0a
aa0d
a61a
a3bc
acbb
2801
a45f
2cd9
285a
2c99
a424
28dc
2b60
2a6c
aacd
a67c
2830
a1c3
a812
2046
a862
2690
2991
abc4
ab63
273b
18aa
9e6b
25de
a85d
202a
a27a
765
a29e
2a9a
1f8a
a846
a096
abf1
1f68
a6ea
26cc
2464
2662
a780
a649
2948
263b
a46c
26d3
26f4
a960
2745
1c40
25c0
1ef2
9d7f
aaf0
a4ef
287c
28e2
a477
2286
a0f7
a709
a983
a25c
a677
1a9d
2061
259c
28cf
2aca
a526
2b42
2016
20e1
2705
267c
283f
ae04
286d
28fa
2c6c
aa6f
a718
29b6
a475
20ce
a996
a8e3
a2d4
18ea
a5cc
a2e8
2aa9
83b9
2507
2984
a5d6
ab2f
9a10
2b97
aa0c
a15a
9cd0
84d6
2a2d
298e
221a
2877
2569
1819
1e21
247f
a1aa
2466
a8e3
2385
21c3
245e
2946
989e
24f2
ac40
a172
226d
a53e
a74c
a5bf
a3c
2dc9
2a36
a113
24d6
28c7
249f
28db
25c6
2694
254f
22e0
1f92
a8bd
a680
2ccd
2b69
2270
a402
2827
a6e0
a5a4
a63f
a1c7
1d4b
a9d5
a8f8
a604
a102
1bc7
a8fd
a7d7
a8ee
ac25
24bd
9e6a
9ff0
2019
904e
2b4e
28ae
2bc5
2247
a41b
a62a
a526
a8e6
22b3
a50c
a8b2
2283
2524
a9a2
abb0
2a6c
2921
a6db
2280
29a7
ab0e
27d8
a48d
aca4
ab10
a001
2d39
9c21
2b91
236e
25a9
a722
246d
a68b
16d9
2159
2dc3
a955
2ad5
a93e
a1bf
ac3b
aaab
2c03
1fa4
1427
2082
21e4
ab5f
a82e
2787
21f8
2bc1
a02d
a123
a7e4
ab37
abfc
a805
a34f
24e7
a5ee
2665
2925
2468
27fe
9028
acd6
a646
accf
a82e
2bb9
a0c3
25fd
a47d
2466
271d
2539
2bdc
1f84
279c
2ae5
a28a
2934
2c49
a159
ae56
a807
2863
184c
aeb5
a92e
aac9
24a8
1ef3
2a84
a80f
a9c2
9699
2079
a971
17ab
9061
29fd
a026
293b
a53b
a6f3
a366
222a
29a2
a40c
2860
a75e
a54b
aa03
9b8a
aa10
acdd
a5b0
a557
252e
aabe
222d
a1d7
a278
a93c
2848
a5f2
27b3
a0f3
2020
27a4
a8ea
a9a7
a3e1
2bcd
2b7b
2a0a
26b9
a4c9
99b9
1a3e
242f
a037
29a2
2bc4
2798
ab37
9f44
226a
2bdd
a859
1c92
a1ed
9f54
a337
a9e7
2ad8
2698
a6d9
1d0d
2db
241e
a91e
2005
a44f
9b3e
aae7
a82c
a838
282b
273e
a173
a7b8
2cf1
2a76
26d9
255f
2b40
a9a5
ac03
ad68
2aa0
a651
a537
1edf
a6b5
2657
2427
a4f9
214e
a1c6
2761
13b3
28d7
a245
a994
af52
aadc
2180
28f6
23cf
a904
1611
aa98
2b1a
2521
2579
1d02
2921
1d1f
2956
2864
aa59
24ae
a622
2a73
a2be
a8fe
9d84
a719
2045
a582
a490
286b
2d48
29aa
2a50
a552
9272
2e6c
29c1
2a92
1fbd
282d
a7c5
accc
2287
23f3
a5f0
a218
aa8c
2371
a63c
9f41
a916
23b4
1655
2aa1
22ac
29f6
16ec
9c89
2b32
2abe
27ae
a80c
ad61
2839
49c
21e8
2233
a26c
22bf
2266
a498
29d1
258b
117f
270a
29be
a3c0
a0ca
a5c8
289a
2697
2a48
2e44
2915
8593
a884
2878
1cc3
2884
2a5b
ac5c
26e9
929a
2ca8
252a
26a0
aa56
29a5
28d6
a4b7
9313
9e7c
a9dc
aab8
a33f
2e4b
268b
a0bd
2672
1fe0
21b5
a8cf
9de0
aabc
2561
1b7b
a1f3
8f9f
272b
2999
2b5d
a006
2ae2
ac9a
aa3d
21bf
a586
ac79
298c
1e5d
2918
a869
ad92
aa81
1dbc
a79d
2cc3
2c06
99cb
25e2
26c3
2a5d
1fd5
2946
27dd
2a86
ab54
18f1
1ec9
1ed5
1763
ab36
2524
2bde
a8cc
9f5e
2c26
2da1
2d85
294e
2889
2cbe
9ca4
24eb
267b
9d36
a7a6
1e85
29c7
2245
a838
231f
224f
a0f4
a990
a974
2274
28c6
2142
19e9
ab5b
1923
2768
a8a3
2962
2a2e
9961
a3d3
a053
29ab
a476
a7e8
286d
a5ef
2089
10a1
a97e
298d
1fe9
243d
a869
a08d
ad33
a46f
1e7d
2337
a602
a6f6
2817
a817
226e
a3d1
1688
2a13
277d
2c91
a8f2
adca
a36e
ab9a
26a6
a85a
ab6e
a3e7
193e
20aa
291e
2965
aa6b
28db
2823
27c0
aa4f
26a5
2a4e
2d1a
26f5
ae4e
acb5
abda
a54c
2c7c
aa9e
2a07
a2d6
ab3c
29d1
29a4
2495
1f61
a889
a4c7
2d01
a6a8
a7eb
ac2f
1adf
ac6f
a6be
2b5c
297a
a34c
a843
a7a9
2a14
205c
1af9
aa22
2c09
23a5
221c
ab6d
a60d
aac2
aa2d
a786
2745
28bb
2a08
a779
9a38
20f8
2c5d
1ce1
a01e
a116
2cf7
2913
27c3
9d1d
29a0
2aaa
21ce
2735
a9c5
aa6d
a65a
2502
22f7
a91f
9da2
ac27
a8e6
a074
a930
a590
24b4
26dd
9a77
a320
a4a5
23d0
a85d
1e81
a42e
a710
20f4
2840
26a7
2867
a94f
a993
2ad4
a9fd
a12e
289d
1aa9
2aa4
9a73
99fd
26b4
a583
1341
a5a6
2a67
a7df
2091
a795
1da0
a91f
247a
a366
979c
28a1
a8e6
286a
2660
acbd
a491
9e83
aa16
aadc
139d
abdf
25a9
2d16
a880
2384
a81e
299b
2b49
9f7b
2d0e
a75d
25b3
26bd
aac8
a39b
29ba
1f12
ae59
2508
a36c
267e
a0b8
2291
ac3c
91ed
a4ac
24a8
28c3
247d
2808
a9d4
1d46
2c55
a114
250f
a5b2
29ad
aa76
a06e
a761
a241
9cbf
9b5a
a68c
265f
a549
2a41
9a56
a305
2678
230b
aa09
2c43
a927
a6aa
2761
2889
a976
2355
2b15
2677
a351
a230
2c40
a329
2139
2645
1ed4
2cd0
21ef
235d
a5bf
29ee
a1ff
2784
a8f2
a9aa
2815
2a07
22f4
a44b
1ed5
ad26
ab05
9b4c
aa4b
168e
1e7a
22ad
27eb
2abb
a16b
290
25b0
ab88
a88f
1ef7
a6e0
2141
aa64
a5db
9edf
a878
a7ea
2794
987a
1cb4
adb0
2a77
aa6c
2421
9a3f
a324
2549
a65f
2ac2
21ee
2872
ae5c
a1ae
2493
299d
28ed
279b
a58a
a8e6
a742
a5bd
1423
a83b
2742
a0de
a47f
a8c9
a55f
287e
240e
238e
2cb8
2bcb
2824
a096
28b7
a9a5
a9ef
262f
29fd
26a6
8c0a
9417
9664
a397
911f
2171
2850
a41d
9d7d
a485
97df
234e
2a94
27a3
acbd
1b1d
233c
26d5
a38e
2bb3
2439
2b0a
2488
2847
a5a9
a5cc
adab
ab33
aa63
aa1e
2969
ab2f
2a02
2762
27f9
2b3d
9d37
a668
24c3
2cb1
a878
2529
223e
288c
ad59
2100
a910
288c
2170
26bb
2878
a86f
26e0
282a
aab8
a06f
277a
a0ea
9be9
1db9
2143
21d1
a81f
2a67
a8a9
2027
a1ea
2824
25c0
acce
26a3
ab0f
9c1e
aa64
a234
29e8
a743
2b0e
abe7
ad2e
a36a
9b94
a8dc
2405
acdd
25e3
27cd
2825
9d1e
a3f2
9f22
2c0d
124b
a6b8
9e30
add4
a9fd
a709
2744
26ce
ac60
a829
a9dc
1e5a
20a0
9fb4
27a8
acba
2a3a
a443
26c7
2c33
a593
a9e9
286a
aa83
a533
aa84
275a
ab65
a5fd
248f
29dc
28f9
20bd
9c90
1212
2128
23d4
2496
19f9
25f9
a297
2a70
15f5
2c1e
29d8
2177
2cc7
27ce
ab09
2218
28a6
a4e8
aa91
a468
a0d5
2011
267d
2859
1c35
9c9b
2cbb
a957
ab3e
2637
f3c
a6ab
aa5d
ac37
1d6b
264a
a6cf
283d
297d
a641
a22a
998a
2484
1c38
ab96
aca7
a255
2180
1bea
2efb
2ee6
a00d
29a3
2e40
1e05
2c96
a3d6
2384
af1c
aefa
ad46
b0d8
2385
a8ad
aca7
acac
ac38
a93b
2605
1d34
a2cd
a5f5
ab09
a06a
2c48
2973
1ee5
a488
a90d
2118
a433
aa4e
9970
2907
2270
a85a
a32c
a5fb
a519
a4fe
aad6
2870
a3c1
ab31
2a32
ab5c
a28a
a9d3
2c07
a93c
29a8
a851
a470
2869
2c34
2abd
abf8
a786
286b
ac1a
2ad3
ad46
2875
20b1
abda
a5f7
2850
203e
2785
a617
9fab
1c1b
a823
a55f
2824
a2bd
2ed8
25da
18d9
270a
278a
a437
a9dc
ad2e
a907
1a61
a6ca
767
2970
2a80
938c
2bd6
26db
2c28
2c83
a003
284d
2655
a64f
2dc7
2eb3
22eb
25ca
a0f5
2cee
1e74
2143
a9c5
ac55
af83
a9aa
234c
aa6a
ac7e
ac1f
ae2b
a8c6
2a2b
2384
998a
a75c
adc8
261f
a94c
ab11
ad53
a6bc
2955
abe5
a67f
ad38
a7ad
25ea
a9d6
297d
ac95
2ada
2823
153a
a61f
a58e
238c
1e18
a573
1a4d
a7b8
20f2
a406
22ca
a2af
1e31
a7da
a9c8
26e0
a969
1bcc
2877
ac0c
a83f
aa6e
2734
acbb
20b7
2dc9
aa5b
2372
221c
1de8
aa30
2b89
ac55
ac68
ab10
2882
1b7e
2723
acbe
9991
3041
240a
a644
293c
aeaa
2c79
2a39
2da1
9ff4
252d
9d00
ac2e
2e7c
27b8
aad4
2820
2e65
295d
a073
a738
a916
2d20
282f
2834
283e
2141
1929
2b76
2972
a8d1
9f1c
a866
ae26
2a40
a83a
28d9
ae3d
985a
a487
a377
243b
2a6f
aa79
1d88
a414
28d2
a779
a910
ab59
1aa3
a184
264a
a5d2
2639
a2ff
a8e4
a8bb
1a26
ac15
988e
a5b1
a61e
22a2
19ae
1cc2
a7a4
1831
2bc
a560
199f
3085
245a
2ccc
af6b
aa10
a940
2b9c
2f35
218d
1870
a2bc
ab67
27e9
22e1
a622
ad2f
2d9c
2b36
2a6c
1db0
a952
2c11
2503
2a92
a762
9ea2
2647
2940
a01d
9c80
27ec
2a71
96da
2449
a567
a472
a4cc
22bd
2722
a0b8
2681
a2b1
29e1
25c0
275b
2af9
a2c1
2925
a348
1d52
a80f
2e4b
291f
28d1
a8ca
2538
2492
abff
16cf
a018
27c2
2898
ab8c
1dde
1e31
2a0d
a9c3
2481
aacd
a403
22ae
a156
9cdb
a856
2c0e
2223
9fca
26e2
2762
a82e
acaf
29f9
26d3
28dd
ad9b
aca5
a7cf
ade3
a42d
a9a7
a999
2df7
21a1
28ca
2350
2c21
982a
2412
a540
29a7
2837
2846
2e7d
2c1f
9a7d
26f7
ab23
29e0
1e54
a18d
a873
2730
3073
2ad1
2c83
ab39
9e73
253c
8895
24da
a320
1e37
a968
25a8
252a
2af5
312f
2a3b
2899
2087
a818
a6b2
a8e5
9be7
ae4a
25b9
aa73
ad91
a444
a909
aa4a
285c
ac20
aaae
2bd1
9c90
2d48
ec7
254b
2a5a
288f
a073
a48e
23d7
98ba
293c
2c81
2854
962f
a51b
a0f6
29c9
a842
aebd
24b2
a114
a96c
1c54
aa0b
a600
a6ff
2902
a961
ab9a
2967
1e59
1932
a4a2
aa2a
27f8
281b
a623
a05e
2959
a0d4
a79b
9c32
9ddc
a8db
a9ab
2acd
a994
2823
1ef2
a6b6
231c
a171
aa09
1c49
a85c
26c2
a295
286b
9c21
a840
282f
2e06
9a0b
a899
ac4d
2a0c
a98a
217c
a71b
ac09
abf3
29c5
2cb2
a83f
25f6
18cc
291c
1bb7
ab32
a3ef
a87a
a4ab
aa21
2330
2aac
a5ff
9fdd
9865
285a
2054
a3f3
aa08
2684
a624
19b1
19e2
a21d
9e54
287e
a56a
9dac
a561
a7f4
a52b
2872
aa9d
284f
2db8
2466
a80d
a5e7
a909
1f56
204b
a958
a1ae
abe6
2c35
296e
a2c7
2496
a091
569
a8ec
9d27
a307
a556
1d2c
abf6
2320
a616
a79d
25fc
abce
2b93
2505
2a9d
a5a3
a405
24bf
28d3
2649
a852
aa3e
a1dc
2407
ae5c
8dde
2bd6
1e2e
1e0f
aa40
a70f
1f68
a74f
a20e
ab00
a525
25d3
a6c1
2714
248b
2354
2474
ae1a
aac2
a167
9c89
a758
a959
a89c
2569
2495
2574
20db
ac17
a19d
adfc
a9ba
2227
a4a0
29f6
1f82
acd7
a9a5
2dab
a394
1641
a064
a854
2b56
2992
2ea7
a82f
2249
99e9
a9a8
2d9b
a9d5
ab40
213a
2a1c
a01b
1fed
a0a1
2644
29d0
24ab
99ef
1d8c
203f
aacd
2967
2c69
ab94
a096
ab62
1575
223c
1a47
a3aa
a92b
a93a
a6c6
a962
ac28
2883
2874
26d0
2b7c
a955
a9b7
1a82
a891
1d80
2975
262d
a8b6
2b6a
24db
2bcb
2bd3
2688
a870
a897
aa99
a40e
a88b
2774
a23e
a947
221f
2aaa
24dd
a123
2990
2c3a
2c97
2424
1c60
29d8
2785
2b28
281b
ab8a
a088
a1f0
aa74
a81b
a76e
a3a3
2531
a9aa
a01f
2abe
ad1e
a901
2bd4
2d41
a11b
1ce4
ab8c
208c
2472
a5ce
9e8a
2b00
245d
1a34
22be
28c8
a601
a8fa
a52d
abe0
aabe
a4cd
299b
aa48
1563
a549
a0c5
1917
1eed
2853
a973
24ec
2a02
a403
27b2
a5d8
26d5
ab41
27aa
a812
a46f
a8fc
9eef
228f
1848
d2e
a84f
a917
22a0
a53c
a6ac
a1c1
a050
a53d
2b58
a951
a78a
2823
a924
28b0
a509
a925
1d20
21c8
a6cc
a9d7
a562
a8ec
2a3a
a75e
1e86
2c33
2a58
9945
2961
9de4
2063
a9df
ad45
2577
a85d
2541
24da
1b6e
a3dd
a938
292b
2747
2c87
2700
213e
22c1
2c35
ac3b
275a
adc2
aad6
28af
2cd7
a162
a6aa
a506
29ba
a9ab
a451
27f2
2ae2
2cc4
207d
278b
288f
2a78
283a
a8ab
a610
2a47
aa48
9d79
18dd
200a
a5ef
a5e5
2943
9af0
a5f5
23e3
a4a2
a72b
2d17
fcb
2a3f
2ca7
2c12
9ec4
291d
a1cc
ac45
24e8
a398
a3f3
26da
1850
a9c4
1920
a199
2311
2bb3
2182
abcb
29b1
27e0
2776
25b1
17af
1c65
29c4
246e
9b09
9711
a873
2532
a9cb
a978
273f
a799
29f7
28b4
a3b1
a64b
aa5e
23fd
a42d
1895
a949
29d3
abe8
a856
a10c
2660
a847
a6bc
a928
28e9
a7eb
a6ce
ac6f
1c21
25c1
275d
28e0
262b
d1e
1d78
2323
a50a
286e
27c3
1cba
2975
2aba
2c06
a859
1976
2786
23ba
aa7f
2428
aa01
24ab
a8cc
a83a
2580
a94a
a6c6
2635
a983
283f
a02c
29d4
2333
ab8c
a98e
1c2a
2a61
a55d
aa9b
96ed
a244
9d22
1bdd
1a97
a38a
173d
aa24
2872
29e0
a079
a3b0
27d1
2b40
2d83
2dfc
aaa2
a3da
2bf0
2ad2
28da
a431
27d0
a491
ac42
a196
2668
a818
250e
ad1b
a62a
28b8
a611
a49e
2978
ace7
895f
22fe
2877
a9b1
a833
a581
268c
941e
23c3
a135
29e2
a5f7
a4ad
a965
2451
2c5e
2b54
9f98
a79d
2b80
2b24
966a
2595
ac20
28b2
2037
2548
a41a
a6e8
aaee
abbf
acaa
2833
a4c1
a876
24e5
2bf1
2ce8
1944
281a
2c03
a38c
246e
29e6
a64a
9b89
2c21
a8e0
a80d
a19a
ab0c
a34d
841d
ad7c
2b35
a0ef
a5bf
a41c
a868
a1c7
a28e
25d4
2df4
2778
2424
a1e8
2644
25ff
9d3b
242b
29e3
2855
a4c4
a499
2103
ad1b
279d
25af
a8ad
291d
a9a8
abbb
2951
2806
2cb9
9d61
2986
a89a
2611
2a20
a847
a8e4
a846
a464
262d
2b15
280d
2879
ac59
9bcd
2939
2085
9f54
a583
288c
27a6
2904
13f2
ace4
178c
2422
2931
2980
206a
2d26
26f4
2bec
a574
a897
abbf
ac4d
9c92
aa22
a7cf
a53b
2687
9e25
275e
1e89
258e
a8cc
25ce
2876
19e0
ae1b
20eb
a7c8
a2e6
a4cb
a2ac
2a03
a667
1f3e
a87e
2212
2665
9cfc
9f46
ac13
ab43
a8fd
9b12
96fa
217b
248d
2a42
a975
2292
a7b5
2b9c
29df
9d47
2c84
2a71
2ac7
24ba
a872
a4d7
2b0d
a41a
ab45
2284
a265
2560
a52b
29cc
a054
a97c
ab5d
2cb4
24c2
186e
a85e
aa5b
29c9
238c
28bf
a36b
a272
a4c4
ab38
9c2f
a429
280a
a84c
a640
a9d2
2400
2847
a996
2910
aa72
2a3d
a1bc
28a6
2acd
25d0
aa69
20fd
a3b3
2b26
26a3
237b
9ecd
a578
2a16
a3e3
29e7
2b23
1cf7
2313
a605
a796
a6f0
ab77
236e
aa5a
a794
25d0
9f21
2aef
2de9
a028
2acd
aa39
a717
abd0
a4df
a99c
27e7
aa01
a6f9
2923
23c7
14bf
a813
286a
2528
2542
2990
a2fe
a445
a41a
ab4a
a0a0
2b7a
9891
aa5c
2904
a1bd
a8ac
2585
1a18
a154
9d0f
1c54
a8e4
28a3
2a9d
2c2f
2134
2b66
2c7f
2ca7
1afc
262d
28af
2f0e
a755
a580
ab27
29cd
a74a
ad22
a3d3
265b
a8fb
27a4
aa01
28f7
1f50
a92a
2284
26bd
2933
282b
1972
aabd
298e
9d68
a47b
c02
a865
290c
a7ee
295d
a089
26a2
a705
a5e0
284c
1dad
1b81
20e9
fef
a95f
2b1d
27bc
2674
a4f3
a296
26a3
9d36
2384
ac9d
28f7
a7b5
244e
24a4
ab67
a145
aad8
1976
2b4e
28ff
22b8
24a2
20c3
2138
a7bf
2c5a
26be
19c9
9e47
26dd
202a
24e5
2380
2d0c
2345
a8de
a8b7
a755
2317
a415
a957
21f4
ab1f
22cd
a16a
22ad
2497
a7f6
246b
a482
a25f
2824
ab57
2aa9
2af8
203e
2ca1
2809
2c52
2d76
29d4
2c9d
24c2
9ac5
ab62
a663
a98b
a3b6
2727
20c9
ab6a
9c74
1408
1fd4
9d8e
24d2
a43d
a13b
99b4
a68f
ae2f
a0f4
1d47
ae47
ad87
ae23
a2b4
a8da
a89f
2825
9c3f
a984
a9a9
2304
2bf2
25ac
2974
a688
28d0
2095
20e0
252b
9e6f
902
294a
219a
29a9
a427
2e03
9b1f
a41a
258e
2630
24e1
2a4c
aa69
a963
2151
2a3f
a8ba
9b37
a914
a851
289d
a83b
2904
2892
a1a6
a369
2623
2c63
2d17
aa13
244f
aa0b
a2b8
276e
a8a4
a87f
a560
ac18
a889
2e86
1b91
aaa7
a821
a4de
9ad0
28c5
27a9
2c62
970a
2060
2958
286f
2930
2b1c
22c4
a0ac
2d0b
2875
2758
28ae
2970
9e84
a4f4
aac4
261e
27b6
a8bb
a825
a3d6
a72c
2c17
2a73
a715
235e
9921
a431
2655
2990
a071
2225
a609
2874
9dee
a4af
2492
27ec
96b5
2bb5
1df3
1944
2a5c
126e
9d9a
9f01
1552
26b6
191a
9cc6
a8be
a91d
2cdf
abdf
acca
aa37
2904
acff
2495
24de
2517
2233
adc6
a472
1837
1ff2
a39a
27e0
2a4a
159c
a9ee
aa3c
2c04
2606
206d
217b
9958
2815
20c8
2c56
20f6
ac58
a117
a27a
a834
a854
2232
2ba4
1f27
abe0
a578
21aa
2408
1deb
2295
9cb5
a566
2807
287d
2108
a12d
a54f
270d
a5bd
2517
a5fb
a723
2573
26d7
2177
ac6d
2816
2c89
a6de
a455
a936
2550
2824
a56b
a1b0
2a18
a843
1d15
a310
a41c
294e
a95d
a50f
a8da
26d6
2b9a
ac20
2015
a233
aad6
2846
a0ce
9b13
a833
26f0
aa49
a461
2cb4
a2b5
a5dd
2964
2667
20da
a9d7
235e
a6f8
a765
2a58
1c42
1f86
ab37
2a90
29a3
ac2d
8b18
9ef0
245f
20f5
272a
2c85
a1a1
ab2d
a5e3
2726
a781
a27f
2527
a38d
2a43
a50d
a4cc
2573
24a8
9d8f
2023
262a
a56a
9d21
aa2a
a541
a2fd
a838
a68b
a9a2
a8e3
27f2
2742
211a
a830
a916
2372
2982
27eb
2b8f
a06f
a4f9
22bd
a81b
9b21
9828
90c8
2a42
291d
2825
20a4
2634
a3d5
a11f
2914
2944
26b8
aa0b
ad47
9521
a872
a8e6
9c62
288f
1089
21ab
a3d0
2544
2609
19ee
a600
a492
a868
29b6
a8fd
a548
2593
2561
24ac
24e2
9e29
2bb9
289e
2612
20bd
23ff
20a0
2a77
9da1
a08b
269b
21be
aab0
2723
a107
9fd4
41
aa49
2999
1d8a
2a73
a930
a0b3
a702
a8df
9ac1
29ca
a892
2bf6
2b01
2e2f
a772
9c6e
1c05
2b5b
1f99
2838
9ff1
295b
294a
1b50
28b9
2542
2136
2123
21c9
9cf1
2002
a70c
2718
ac32
20f1
2003
29ef
210b
a7b7
aa6c
a12d
a892
98a2
aa0e
250b
a0b7
a135
2a45
238a
aa32
9abd
a8fc
27fe
2930
295d
aca5
a63d
a95e
20f3
2e87
a57d
2449
22cd
2ada
244c
a425
21f0
2907
ad41
a431
a944
253e
2dfb
ab15
a60c
2803
a748
2a58
21e4
26bc
25c8
24e9
2410
ad54
28cb
28f1
26d9
a4c9
aa4a
99f2
a14b
9f4b
aebd
a16e
284a
2936
a469
aa29
a69e
a5c1
a971
a56a
a5e1
23e2
a4e4
2898
24a9
2b0b
94bc
2abc
2679
2823
a994
22ba
aaf8
a94d
2532
ac28
a42b
a99f
2414
a7fd
a471
a464
272a
a83f
2a7a
ac1a
a590
2870
2136
2a9c
a890
2870
a90a
1f85
a938
2371
202f
1bf6
a884
2a0b
2c4f
2bb7
a8f5
a976
a810
9d2e
a413
287c
a884
a9f4
a388
13b2
259b
866b
29b8
260c
2b7f
9c98
15b9
a04a
a8a5
1836
a556
a950
26e4
2a69
28e3
9e42
a972
272f
24d6
2a5f
a959
a841
2a5b
26db
a76a
9c32
2253
a33e
2867
a8c6
1f9f
abac
2903
a729
16cd
ab1c
ac3a
ace3
ab25
2046
a74d
a362
93b
2d44
28f5
a424
a4c2
298a
a834
27cb
1e03
ac20
a742
a8ea
a78d
abeb
a210
a9fe
2946
a400
a3ff
ab6b
2dcb
a5f5
a92f
2a2c
a317
28de
ac15
a3aa
2346
9dc1
2bb9
22bc
27e9
9bcc
9e1d
2b98
a313
ace7
24b7
a9e4
2531
ac45
28a6
a809
a659
2cc3
295d
2ab0
243b
2758
93a3
a6ea
a04f
a016
2a0b
9f6e
12a7
a6ac
2584
294a
a0d4
a6ac
ae4f
a645
a29a
2729
a818
ac17
2643
9d25
26a2
2bae
2019
293f
148d
214c
28cb
aa5d
2359
1c67
24ff
a779
abc8
2938
24da
a9bd
a243
a178
10dc
a98d
291d
a425
a04a
2b8d
289f
2634
24fe
a8e5
a2ef
27a2
2893
a8a2
2c3f
a043
2836
a845
2832
a9c7
a6a0
2618
a721
22e7
ad13
acda
a9be
aef0
1ccd
ad12
955a
aa30
1f71
27d0
1e83
1409
27d3
97d5
9d57
21a7
a8ac
a0d9
2554
9d60
28f7
2a69
2a84
9d76
279b
9d9d
a741
9b5e
15e3
2940
2a3d
ab3f
9f30
24da
2c87
2dc6
2db0
a438
a895
29e5
8b69
9f97
ac0d
ab10
2a40
246f
a745
1eb8
261f
2cda
aabb
2357
a075
23d8
a87a
a56f
1053
a485
a881
aada
273e
a7c4
a5a1
a9e9
1939
ac3d
2822
a9b4
aa21
a4ff
a5df
2ae5
2ac2
25ff
28cd
ab6a
a8e3
a06e
25a4
9ae8
9357
2c8a
2c52
a3fd
a15c
2566
1cb2
24e4
a7e7
2a81
a8fc
a9dd
27c6
a6ba
285b
abb4
2166
2d14
2949
2c14
29ff
285b
9c8d
a927
2746
282e
2871
a242
2b6b
97e6
220a
a524
2408
acae
26c3
84d7
2970
2450
2a99
ac67
a971
288b
2c70
a92c
2c3d
a325
9e36
9e9d
a722
9f86
292e
a510
24fe
285f
a8e5
214b
a465
a03d
a8b1
a54a
2829
a23f
a823
25f1
a4a1
14b6
282a
2c13
2dfd
2ab5
2572
2b9c
286a
2ad5
28f3
27b3
25a3
9475
1d3b
9e4c
ab12
243c
29fa
2a9e
2829
adbc
a3ca
1ff0
279b
ad07
a2dd
a834
2869
aba6
aaa5
a236
23e8
2511
293b
270f
1e41
2500
a8db
a987
a080
a559
297f
a6c6
a4b8
1cdc
9ec6
2418
2878
2987
abb9
21b2
2db5
298b
ab80
2884
2704
2639
aa48
a68f
20e4
9997
280d
acfc
28b8
15e3
ab03
2d23
2968
a412
2723
a8dd
1f46
2b9e
a848
a060
a41f
28b4
2b9a
a68d
9a74
aab1
ab6e
a260
a968
9bcb
23c6
2988
ac16
2cd8
a6dd
2c6e
2248
a0a4
24aa
2954
988f
a813
25d0
9b96
23e3
8c5
985d
a58a
19c6
1e84
2793
2b88
973b
ac78
a88e
9a39
aa4e
ac0d
ac2e
a9cc
24ec
2a61
a689
1bba
9a4e
ab72
a6b3
2c23
2a64
2589
ad04
a58d
2810
9a82
27e4
238b
a8c1
26cb
221f
aa52
a07a
aa57
2921
a433
aab0
23e7
a335
2c1d
2e43
a8d2
ae12
a449
a758
a9e7
933c
a4d2
a406
2136
2a37
250f
2e70
23b7
a4f4
a1a1
ad4a
2228
a69a
aaaa
a5f0
ad02
a885
a4fa
2830
2356
ac55
ac5d
251a
aa0e
2912
25df
ac8d
a3c6
2a7c
2154
1cd2
297f
aa62
20d1
2a14
acf8
2691
a9be
a995
a012
2874
2301
a7ba
2a0e
29d9
205a
28b1
2932
a0da
ac32
26d6
27ef
a457
a9a6
aee1
28cc
26fd
a8fb
1ff3
234e
259d
a9fb
27b4
26d1
28d4
29e0
a48f
a981
a46e
a72e
ac26
ab80
2822
20f9
a00c
a81c
2b12
2603
2a60
1f0a
28cf
9f18
a7c7
a9a0
1cc4
ae5e
a606
2591
266c
1042
2885
1972
25c8
1d43
2494
a0a6
2af7
ab71
ab14
aa92
2432
2bdf
a826
244e
a05c
1aeb
a2ce
aa15
a8a2
a8c7
28c2
165a
a121
1b87
25e2
2df5
2468
21b0
a03b
29c8
2523
257a
a795
1db5
a74a
9563
2667
ac63
1958
a7bb
2d32
2bc2
2be5
268b
a935
2124
9954
2867
aaf9
28cf
a555
2c08
27cd
a930
2317
2e2a
1c2a
24c9
286d
2bf7
1dd7
2a17
2b1d
2ea3
29e8
a799
20aa
28fd
2c4f
a5a2
a85d
20fa
abf5
26c4
2d4d
9a97
a632
aabe
ab1f
a8ab
a6b8
ab19
aa2a
2861
2368
a90d
a8c3
a9f3
a24d
a862
95c0
a2f7
a4c3
aae5
a8b5
247f
aa1b
27f0
2a24
a25a
292b
25f4
a49f
a147
18b1
a979
a13f
a0d6
a8d1
a929
aaa7
253f
a8c0
2515
265a
a515
2488
ab0d
2a18
25a0
201d
28cf
25ce
9fa5
2ae2
a408
2ad7
228f
94ff
a1f2
2cd8
2949
227f
2333
2a33
a47c
1e54
a872
a97a
aa70
1b71
278a
2b9f
a677
ab44
27f2
239b
9f13
2662
a8f8
1c70
a5a1
25c9
a899
2c98
2c91
2555
2711
29d4
2e78
1f53
a4e2
a07f
2a63
26ef
a4bc
2b18
157e
a4af
ab7d
ac6c
245b
a15d
2b5e
1623
1eff
a461
aa78
24fb
1228
a4a7
aee0
a7d6
21e0
a85e
abd2
ac05
a375
a8c3
a903
a7ab
aa85
aada
2553
20b4
2ab8
24ea
a863
a9bf
a190
a876
a6a4
2a72
a858
2428
1caf
29a3
2a2b
a909
a2c5
24db
abb5
2ba6
2a59
a1f4
a50d
a4d2
a02f
2df8
2aaf
1bcd
a80d
a237
287d
2d16
2597
a695
1617
567
1c7e
2887
a88e
2a84
242e
203e
ad28
a13e
2c30
a6e6
2748
2784
2a50
a267
244d
ac19
a9ae
22b9
a467
2d72
2ace
a45f
2759
214a
29d0
241e
2c02
1452
293c
24a6
197c
2786
a2d2
2777
a650
a909
21b2
2764
2824
2a6b
1a28
990b
9c57
2ab9
9fbf
a58b
a6ac
a912
2337
a9b7
26bb
a495
28eb
9c58
aa09
29ed
a49d
a1d6
953d
a8d9
2513
a316
2c12
a446
a58b
9c87
9a34
a8d8
2796
a9c3
25a4
aa4b
27db
2197
a4ec
2579
aaeb
abdd
a988
a846
ace7
24bd
2a4d
2093
1948
aa69
2762
2b15
1dac
1b2d
a003
a29b
9fe3
aa93
a4a4
a403
2d00
9800
9c8b
9710
25a8
2588
a347
2ba6
aa87
26e9
a7da
a7de
2934
a25b
2a38
1f66
1f79
1e8e
a307
2c19
aadb
a2b5
237e
2a38
1db7
a2c2
25fd
aa84
a322
1f6c
a6c8
251d
8d22
aa47
a4a7
a909
2345
21c3
a2bc
25ca
2abd
a52f
a1fa
24a3
a3ed
a448
2489
a583
27b9
a178
2a99
19f0
27bf
a09b
a8c6
a77d
aa61
2a07
a9fd
aab7
a95f
200d
13ab
27b1
a4b2
298d
aab9
23f6
ab34
29ab
209a
2aa4
26fb
2814
a515
1930
2a47
a090
2b14
2c08
a64a
a707
a4f7
2810
a0e8
a74f
2274
26f6
2cce
2cba
a9c7
2c51
2b13
25bf
24b8
1e89
a6fb
aa47
a924
a428
a63b
ac14
a2cb
a702
1da6
2b1c
a41b
9852
9d7d
a8eb
2aad
289d
2775
ac98
2626
2c9c
a924
ac3d
e15
a1a9
9cdb
21ca
a819
273e
19d5
25b7
298e
a13d
2339
269b
2885
90c8
2134
a910
25ef
2aaf
2379
ab38
230d
aa51
28fa
a3ad
29df
273b
2a7c
a67f
ac52
a64b
a49f
29d2
2c3e
a577
ab6a
29c4
a47e
a87a
a76e
21c
2517
a6e9
9fc1
27a1
acb0
a822
2ba3
2894
a2ff
9c6f
2220
21ce
2d01
9ecd
a119
9efd
aa78
16e6
2242
a855
954c
a799
2772
a740
2859
a969
a617
2c71
2549
aa8c
a928
20cb
a400
238c
a3cd
a8ce
a4da
a768
a726
a8c8
a466
a764
1df0
23d0
266d
276b
a8da
a813
2203
252a
1c97
26a6
2974
2663
a447
1a73
a565
a246
a3ed
24af
26de
23b6
a9f5
a1a1
9ff5
ab76
bf7
2be3
29e6
2c15
286d
a563
292a
2805
247a
1d60
2bab
2927
aaea
abc7
2c6e
2ddf
2d10
2ad2
ac12
2285
abe3
29fb
a301
251c
25c0
ae8b
a49a
a46a
a9b3
d72
a259
ad9e
260e
a662
9d67
a889
accc
2895
2d4b
2126
ac8e
97ad
a950
ac1a
2b43
9d94
25df
2933
26af
a70d
21cb
2f9b
2cff
1dfd
a3d9
1ce1
2106
1b35
a8cc
2902
1a71
a63f
adab
27dc
abb0
1b24
a04c
164a
ac76
a856
a501
2b64
a131
291a
a4a5
a77a
ac14
a15f
2680
27ab
a3cf
20ec
a440
a88b
a789
a631
ad3b
19e6
a9d2
ac0b
a516
1a0c
2c84
a9d9
2d38
26b7
a95a
2300
283d
2be1
ac03
ad31
a330
2719
aacd
241b
a845
a880
250d
27b6
249b
a62d
a645
9987
a460
ada9
aa61
1e75
2227
a45f
286f
28ce
a13f
2965
9abc
ad12
aa55
aa90
ac7c
2830
29a1
a40a
a6d2
18e1
a9d4
22ff
a62b
24dd
2ac6
29ae
28fc
2a47
91c5
a450
25de
abc0
db7
a8f0
a34b
a819
292d
a1e3
2a80
2b75
24d1
aa29
a91d
988d
25fb
25b2
183e
aa1a
2c53
2550
27ff
a943
2d79
2329
2854
2cc0
28d9
2b0a
a406
9e1b
a560
ae46
ab59
a474
a204
2084
2234
a6e9
a889
8d01
a7c0
2390
1cf8
a43e
aa11
283f
21c0
a3d5
a4e5
a571
982a
99c1
2a7f
a4a4
250f
104b
a5c2
1cbb
2748
269b
a50c
a8c2
a982
a97c
24df
a37d
9d86
a75b
9519
272e
204c
a176
2c0a
2c06
2939
a479
9bbc
a46f
256d
a0dc
2068
257c
ab7b
18e6
ab30
a23c
a13e
9790
2630
aa3c
a9e5
a849
1a3c
2c71
a00c
a2c1
2807
2aad
a104
955c
204e
a966
2c87
2c13
2840
a9b5
a4a5
2a9c
2808
2722
2241
2764
9cfa
a8ca
24d2
a951
a01a
a7a4
2924
2985
2d03
1d07
ab77
2dff
2eb8
29f7
1bc7
ad41
2d32
a958
a67c
a7ef
ac72
263d
96cc
a845
21f3
1c9d
9e52
291a
287e
2a70
2859
2826
2d3b
8819
21bb
2cdc
29b9
2b4d
a4f4
2423
24de
1e84
a954
a082
ac1e
a2a8
26e0
1171
2898
a5a8
a9d9
a99e
aa35
24a1
2705
ad13
af46
a5a4
a48b
18ae
ae34
8d9f
1d8f
1816
26c8
a665
a17f
22aa
2812
9f32
29d6
aa8a
a3ee
26b8
a352
9fc6
2ce4
a8a5
28d0
180c
2540
aaa5
a818
22f9
a03d
269e
a35f
2abc
a40b
2c30
2486
2b79
a95b
245f
25b5
29f0
883f
24fc
a4e4
a9a1
a901
2118
28d3
9c2b
2d9c
1ccc
a415
1c07
14e1
2aae
9cfe
1c67
2abb
9930
a96b
2036
26ae
26e5
29e0
a4f6
28ad
a077
a8aa
1d98
2b55
a820
2967
239b
9d31
aa29
242a
2575
21f1
ab99
266d
20e2
a720
28f8
9acd
2ef9
27eb
a635
aa88
2afc
2c58
a844
2844
ab2a
2cc3
a70a
aafd
a64f
24a4
267d
a6ed
2966
a9fa
c0d
ac40
a540
2c34
ac8e
a382
2b3c
2cb4
260e
2c5d
296c
2890
25c6
aa2a
2a81
23eb
aa1a
ae6b
215a
3096
2c3e
1811
a427
2edd
2c93
24e0
2979
2c59
a8f7
a961
a983
ab7a
a4e3
af9d
2980
28a3
9bf5
aa88
a84f
24f0
a1a7
24df
948
a80b
a1f3
1700
248b
25a3
a22d
2184
af61
a81b
a28c
a867
ad89
20d3
2c18
2d51
a1cd
97a3
ad77
2dd3
2a58
21a4
2657
29b8
a9b2
2a31
a3da
1c46
a4af
ab59
a8cf
a752
a730
a87e
84a4
9a12
a754
28ba
26e0
11af
a92e
a65d
9926
a9c6
2463
256d
28b9
250e
262d
1d6b
26a5
24f2
272a
a815
a39f
a396
acf1
ae46
ac47
2b8c
1efe
290d
aa25
a73f
a4c8
26d7
2164
97cc
2a3b
282a
291a
2a4f
2149
a162
2477
a8f4
2cc2
265a
2d88
a638
a8c1
9dc2
2301
26a6
a93f
a5a4
a989
aabe
a927
9438
2c51
aa0f
ac4f
2644
ac4f
ac10
1dae
1e1b
a867
ad1e
b0c9
a112
2e43
2916
2884
28ef
2955
2a57
2c92
a49f
447
aa1d
adea
2c14
a834
9ed5
29c6
a462
2804
26de
2d90
9e5b
1cc9
a0a7
2732
ac0b
297d
28b0
a9f7
181a
aa52
a86d
a4dc
ab0d
a973
abcd
25d5
a951
a8f1
a1a4
28f6
1b7d
2ac8
2885
2048
1ab6
1fd4
a46a
2871
a2a3
aaab
a944
a831
ab6f
940e
25b6
9cd5
a759
2948
2f24
2899
9658
a4af
207b
24d5
252a
2950
a9bf
2b05
1daf
2a48
2c79
2a8b
2c79
98fe
2265
2a45
2d95
a441
996d
1c09
2481
a864
a4c1
a32b
9157
22e9
abd8
2a36
a618
202a
23a3
a8ac
200c
9944
23dd
a964
ad74
25dd
abc8
a79b
a245
ac5b
a7cd
2db3
2d9d
a8a9
a87d
a7e5
a929
acc7
a7be
ab85
2650
a8e0
2585
aa9a
a2a4
a79a
281a
1eac
a131
2a7e
27ea
28f1
a653
ab6e
af29
25f5
a5e3
2cd1
2654
9eb9
96da
299f
9936
a7c4
9d51
a1e8
2607
2457
aad1
159f
28eb
927d
a407
23bf
a1d2
a846
a188
8c3c
a871
285f
2152
a4b5
ac0f
2755
a13a
2bce
1588
1f28
1edb
288f
2528
a813
a7b7
2a8c
20a9
ad29
a5ad
1c99
a7df
acbd
acaa
2a00
9d60
ac2f
a6c3
2601
2a23
28e0
2451
a9be
a7f1
2092
2843
25d9
1f23
24f5
a429
204a
266d
2cbd
297a
247a
9ebf
29f6
a9ae
18d5
1ec3
27bb
a2e7
17db
a33a
a580
2b6b
2964
261c
a864
a3d8
25b6
253a
2bde
a9c5
1fda
a818
a154
2b78
2a6a
20fb
2842
ac4f
240b
9ecc
a8dd
a8cd
9eb7
a21d
1513
27fe
a6b6
9a4e
aa31
a286
a0f5
2453
2ad2
a4d2
27e3
aa2d
abe5
a7e1
2285
2868
ab1b
22e9
2a56
2a36
287d
a907
232c
a1c9
a8b0
a8fd
2752
275c
ab5a
25b8
2bd7
29cd
2783
2c5a
2bf8
24dc
286b
a3b3
2b2b
29a5
964d
a2a3
ac12
17ca
ac40
a7ae
252b
1e43
282b
2eed
25a3
a1e3
2645
a51c
a008
aa84
2a55
1e7f
a24c
a87c
a9d7
255c
1e64
9670
ab46
aae6
a904
a6a3
2905
244b
a088
2873
2ae9
a9e4
9f0a
a9fa
27f1
a00e
25e0
aa48
a3f5
2813
a9ef
a979
25f5
a855
2695
26f4
2655
9fae
2bf8
2396
abae
a6fe
a7b1
a543
a22a
217c
a65c
1ded
2b9f
a7fe
a5ed
a8e6
27ee
2623
ac9f
97cc
20b4
2720
aafd
298c
26e5
a150
2c64
2231
9708
ac57
2870
2a15
9e38
1e0c
9f13
9d2d
1eed
294f
9c50
1d58
ac0d
2961
2a32
a4b7
acca
24ca
22d9
9d1f
257b
a820
a5fb
2cba
227a
2864
ad20
21ea
2485
1c37
2746
2504
25ac
2836
1f22
a0a1
a922
258d
27ac
a13e
2946
2c80
2818
2593
2441
a88b
2b05
28c8
acc5
a4b2
a92a
ac0e
9a8e
2964
28e9
2939
1ed9
2ba6
209e
aaf8
ac12
2803
8b8c
a3b6
a749
2899
9b95
9e91
a1c6
2a19
a849
1d81
a718
ab14
24dc
ac77
adff
a83d
2c23
2768
25b4
a8e0
ac4d
25bf
9cd0
