240b
1d53
abb8
2a60
2d8e
ab76
2ac9
aa3c
2b38
2595
2805
28e4
a7bb
2773
a4dd
2e35
2960
ad88
2cae
aba8
2f1e
a981
22e9
2977
2c6c
2766
9b2b
a9ea
23e3
2bf0
a4d7
9819
aa5d
98ea
aaf0
a160
274c
2cb9
aed6
9cea
25a8
a8ee
ac6a
2618
a3a1
27a8
2a91
25f0
a4a2
2195
a87b
2b32
a49c
24d7
a950
a625
aae6
281f
2687
ae10
2dd8
ac3e
272b
ad88
ad83
2950
aaae
2981
276d
a5b5
a9fa
2d41
ab6d
28d7
a89f
9e59
2074
a660
2a4c
aa7d
af0c
1d6d
24e4
a9fa