9cd5
aeaa
af2b
b095
a206
2a39
2579
2fc3
a0f8
2da5
af2d
2c5a
b03b
a016
2634
27c1
2472
96b7
ad76
b163
2d22
3027
24de
2b40
ad79
ad48
a8f9
ad38
a795
afbb
2959
2c79
2cf4
9c94
29e6
2cb5
2bec
3066
31ac
306b
a980
af16
b461
b0ad
aec2
2ddf
2901
98d7
2d6e
a488
a8bb
177d
af23
af12
20ce
a6d1
ac0d
aa03
a650
a7a3
2ce1
3393
35b7
3596
3153
aa44
b027
ad3f
ac54
a824
adea
b2cb
b2b8
b0c4
1c19
adf0
a832
2d02
a4e3
3058
aff9
ac3c
a52a
a99f
a611
1ec8
2c52
2c6a
3164
2c34
2c81
2fa7
2df2
2c5e
2f87
aaba
23cb
20b0
ac99
29a5
a9f9
2256
28c6
28d5
2898
2420
2b8d
a978
aadf
afb9
2f4d
3279
3149
2c25
2b3b
a661
2c4f
285c
a4ba
ac24
29e1
28a9
a67b
a9de
ad50
ac3b
b433
b3be
b0e3
b253
2c75
2c1d
3108
3109
2a89
2e5d
3389
33ce
348d
329c
b1dd
b588
b7c6
b509
ad96
2baf
2af2
312e
3025
1f11
2cb9
22c6
28b6
1f49
22fb
1e87
ab95
abb1
a1e8
9768
28f5
2b8e
a9d6
28d8
2e50
2991
9afb
aaa2
a98a
a55c
2806
2a02
2cbb
a9c6
a879
a0d4
a01f
2e2c
a822
af0d
af24
a07a
2e21
a992
ae01
2cc4
aa06
aa4e
2507
a3c7
21d5
ad29
274d
2c8d
2c24
a9ae
a6f1
a217
2999
2826
ad45
2dd0
2df2
a5b3
aa01
acc7
2bab
16cb
a9b4
aae5
2506
2adf
a860
2a90
a523
2ce9
a52b
2ac9
2074
1eae
2f38
a164
2cca
23f2
2136
2ebc
2a93
a89b
2111
aaaa
2b22
9884
2835
a6bb
9948
2dc3
2e02
9150
2219
ad3e
a8d7
2bce
2e5c
28a5
abf2
2c1f
2c3b
3015
a200
a9a0
2bb7
a8da
2c7d
a8b7
2bb9
2bdc
ad09
a8c7
abb2
2e01
a91c
ac35
a1ed
2b65
24c5
2866
a0f1
a5bb
ad52
aaa6
2cd2
260a
ad46
ad9a
ac8c
ae9c
ae45
2cf2
2b04
acd4
1c2b
1e24
2e52
2bdd
2cd1
2cca
ae53
a8c0
3061
3012
298a
adad
ae62
adfb
2a55
2ab6
218b
ae7a
b04e
3089
9e50
a880
ac8f
2d3e
a903
3056
a076
289d
2b17
a1cb
2ec3
2e35
2cf6
245d
a53d
23cf
2bb8
29a0
2b4d
2f19
a9d5
a972
ab98
2be8
a81d
ad48
aa79
aa38
a997
9fdf
2a46
a68a
a810
a911
a834
2f7b
2dc2
a324
afcf
275d
a798
aca3
2d47
a1db
9d75
b02a
a763
28e4
25ed
2cdc
a8b8
24b3
2983
2f51
a818
a3a2
a91e
1d5f
2d05
2fab
a86e
2d30
ab89
ae17
af99
2d51
3066
220d
aff5
965f
26ea
ab10
acd4
a52b
ac9a
24bd
219b
99f2
27a4
2bbd
2c90
2ae3
2821
a5a2
2ad2
2abb
a832
2962
9d8c
1db0
a9ef
2862
ab9c
2847
a5b5
20fa
2584
26de
95c3
2303
917f
a712
a907
288b
2c5a
2934
249f
a86c
304b
a444
2bf0
24e4
a002
ad41
9686
261d
2d65
9aad
a62b
262f
8dfc
2afc
2b09
ad2a
ad46
ad38
af51
a596
a650
2888
a87d
a785
a883
a8c7
a956
333f
3134
ae2c
b491
b1f0
3276
acf8
abca
2f11
3407
ae03
b3dc
2c26
31c2
31fa
adca
ab91
a15e
1e9e
2c97
aaf9
271f
ac8f
19b2
af5a
b065
a783
2f21
28b2
a9fa
a74f
2eb3
2e84
8d7a
a35f
afbe
ad09
2f3b
24bf
1d61
2433
a390
abf1
2b5f
227d
2f87
accf
ae83
add4
2bab
315f
a5ab
ae84
ad53
27e1
224a
3041
2df9
b114
2711
ac01
3106
31e0
2d8f
adc8
ad5a
2b5f
9d32
a7e3
a81a
2081
af70
ad0a
298a
2d97
ab97
b03f
b188
acc7
ab8a
2915
2814
b051
b114
a821
a863
321f
30c1
8d8d
27c0
ab1d
2647
ac78
a7e7
2899
a9b9
a986
1eed
2ada
aae5
afe8
a9e1
a84a
a8d8
1e6a
ad62
ae9d
adf9
ab0d
a926
2489
a8bf
aced
2803
2935
159f
2889
2b57
a8c6
2959
aee0
a8d4
9cd5
2c5c
a9b3
20f6
a988
a304
ac74
ac38
293b
2478
ac73
aa7a
2694
2d28
30af
2ecb
aa9b
ac5e
2ff9
2e4b
2c28
2fb1
33bc
2c16
2c12
a970
b0de
ab2e
28cd
2d03
b38a
b65c
b23d
aea0
347f
2633
b068
b06a
b321
3182
3479
1e2b
b0d6
9b27
a4f4
ad33
ad64
ac05
ac56
3006
2eed
2b45
2554
afb3
1ccb
28a4
3219
2cc7
9d4b
aa3c
adbc
2cee
3040
2b01
2868
af4a
9eca
2dbd
2dec
ae98
a8f0
a8da
a442
3036
2c79
2c4e
b029
b236
2c08
2d3c
3124
2a93
ae23
b0d6
ad7b
30cb
306f
2228
acd1
b08d
b42b
82bf
2f21
a25a
b063
b162
b014
2ea5
2cea
b0f3
b49e
b4b7
aa29
2b79
307b
a80b
abd9
1eb6
a9d5
3030
353b
2f5f
a146
b06a
b1a3
2d04
3105
32a9
2562
af49
a3cc
20cb
a59b
2c17
a41d
adc6
ac3f
2960
a282
a3ca
aed5
b04a
2cca
2eb6
2993
a448
24a0
23a9
ade8
2281
30a4
2c07
a82d
2152
a402
aefc
aa16
245e
313e
2f2e
217e
a8f9
29af
30e1
3293
3015
28a3
2ab6
2a0d
2f57
3198
2de6
302c
b0f6
9558
2567
2f2c
2b27
aa7c
ae04
a8b0
ac93
aec8
2ee9
2a3b
aa75
b0b9
b057
aa12
340b
32fc
332d
b095
b0ca
a4fd
2ee8
349b
2891
2ef5
b530
b5a1
ae19
2c2a
2cd5
2487
ad78
ad8f
2a54
2b4b
2dc9
a7c5
b0e3
2cb1
2835
2e3e
b2bd
a86d
30eb
30e5
21c7
186e
2ba6
1d9c
2dbf
a84f
1a12
a3d6
2cf1
2e59
ad5b
2ae3
2ca7
24db
30cb
b2eb
ad57
2b82
a596
3042
b398
ac05
2da1
ada3
adaf
b1f3
a7f5
2c8b
ad48
ac92
1dde
2707
16d9
ac62
a04e
a9ec
2c63
a42c
af1e
2e2b
2ca1
a588
b253
a9c4
3246
2e2c
afd4
afc2
2837
3162
aca5
b126
aca1
aa4b
188e
b2b6
a8e8
9fc1
aa2e
a9b3
30c8
2340
a1df
80d0
a949
31b8
2f67
2d28
aff1
a71f
98d9
aa70
b0b1
ad56
aab7
2b8f
af7b
b042
ab74
2c4f
2cc9
ab7d
1f47
a63d
2a06
a624
9f6d
ac0f
a570
24ce
283a
b193
b0a2
b27b
2e7f
b002
b10b
b042
ad3b
ae3f
abba
b0ca
ad1f
af0b
b0d9
ac85
aa9e
29d8
a735
acb8
a58a
b35f
346f
30f4
3485
2bed
b8c5
314e
32aa
3724
b644
b867
35c9
3156
30f5
b8d0
16c5
35d9
ac7b
a814
acc4
33a1
2c4e
b297
2cd7
a711
2c77
acc4
2349
2934
2cbc
29b1
2d7f
2087
2013
3047
3047
2792
2904
1893
2d45
a176
2c4b
2959
2aaa
a9bb
185f
1e6c
2d25
2871
b029
a71b
aed4
207f
2d02
ad32
b13e
af6d
b166
14c0
2113
a730
aa9a
adeb
243c
2513
2d4e
265c
2041
a29e
266b
a63d
2659
9924
ae04
ae9e
a57b
219e
a18c
a67a
a999
b1b1
ad6d
a0e8
2db4
2ced
29ca
ad7b
22b3
2c5d
2fd2
30c3
3077
2a4c
31f0
2af5
3004
2c87
284a
2b9c
a157
2fc7
2cd6
1e62
2fd7
281c
9f4d
2c8e
2b4f
9bcd
2c2b
a5d3
a5af
2b3c
a955
acd8
ac90
a7ab
a739
2551
2c8c
a6ee
a4e8
2db0
a381
ac58
ace6
2e17
25ad
29e1
2bf6
241b
aae4
2f29
2a69
2e31
aa97
1eb8
a58c
a48f
20cb
2b06
2d6c
242e
2fbc
25df
2f0d
30b1
2e3f
b15d
b472
b4e2
aa86
28d3
a5b1
b246
b32c
b446
b173
31b9
2f90
2a99
ac46
b112
30df
304a
2af3
3075
a6c0
abb0
acd6
29a6
2ac1
2d9d
46d
a565
2a6c
2c0b
983b
24f6
a179
a53e
aa67
a893
2807
2be8
2466
acd7
264e
a715
a00a
9c5b
a1ab
2cab
29f7
a910
a8fd
ad51
2d43
acb3
af44
9708
24dc
a656
2bc5
2cb1
2c0f
aa39
aeb1
2ade
28f3
1c4a
41f
2e04
1c3f
aefb
afb9
1a61
a4d3
2cba
1f4e
2d4d
2880
a9ae
204b
adc2
254a
2e47
3200
2691
ab43
25d5
ada0
b193
2819
2db0
2b4f
aeff
9fa5
2a5e
992b
1c69
296a
24b0
a939
2cde
2a6e
2f4a
2de8
ae58
ac82
2b86
257a
2eee
24d4
28f2
21a1
207d
221e
2976
25cd
ac01
aa37
2635
29a3
28a3
b068
b086
a82a
a54a
af1c
23e3
9e38
9d5d
a456
adc1
a444
a451
1621
2dbc
a80f
2f97
2923
adf7
303e
2ec0
2dbd
ac64
a6ec
3071
2eff
ac4d
ac6d
2d87
1987
2cfc
a4c4
2dbc
adc8
11cb
2870
ac79
ab89
b02f
31d0
2cb9
af04
b56c
b57d
2958
1c15
b48e
a960
3422
2822
b011
ada9
315e
3262
a004
2a33
2cd1
32c9
aa71
2305
2e2d
a49e
a35d
2687
a95e
b01c
ab13
acf8
28a1
1a9f
ac89
29fa
239e
26fc
28fc
2a74
2d55
a99b
ad61
ac6c
2b58
2519
2dd3
2d89
2b0c
2e77
9aec
1aaf
a999
acfe
22a6
2f51
a3ee
a5e9
ada4
ae50
a695
a516
218f
2a72
a873
249c
28a6
2acb
3094
305d
2b21
aa0f
ac21
2437
2c96
2839
266a
2bb3
32ad
3048
3259
2a0a
ad35
aa54
2a08
a1b4
a837
1e85
ac41
ad67
a903
a49a
9c9b
2bcd
2e5f
ae13
9d
a8d5
a848
a38a
217d
a527
22c5
29c4
3104
3097
3004
288f
3021
2d9d
2c35
2dda
2c33
2867
234f
a930
2944
2f27
a82d
a875
ad36
2947
a8f6
2ca8
2d17
2e0f
2962
a86b
2ce8
328a
2dae
1ef4
a8b
ab79
2f09
2660
284e
a80c
a68d
2bc8
9d1b
2510
2db5
a37c
2c24
2a55
2924
a8a4
a223
3261
3003
2c86
243f
a57f
a09e
2f35
256f
b2b6
b69d
b633
b47f
b25f
b0dc
2d94
2be8
aa0a
a963
a2cd
308f
31b7
2912
24ef
ae22
173c
a025
263d
2cc4
aa3e
a9d2
a4fa
2a07
26e2
273b
293a
9eb5
a3cf
3023
207f
2cf6
b091
24ce
2fa7
189c
26da
ac06
243c
2dd0
ab36
a26c
8bbe
a698
ae84
a52e
aa1f
2ddf
2f05
a7ea
28fb
ad5c
2e2e
3124
acf1
a867
acf0
2f76
2ef6
af3d
b032
248c
9f54
2cb2
a584
aa17
99f0
2b17
b075
a0a0
2ff0
a5c8
a0a6
afa4
1d44
25dc
acf6
a91a
a75c
a062
1f80
2568
aba5
2610
1d11
249d
1dad
ace3
ad7b
a834
9c9d
a60e
2c0f
a1bf
adab
ad4b
2994
ac65
ae6c
a8ca
2b22
276e
a81e
afb3
aa26
26d9
a667
ad79
ac72
ad59
a41b
a6f4
ae8f
ab98
ad0d
a150
a8ff
1efe
adda
a8fd
20c9
ac99
9fd4
a7ad
24ea
a5c0
2876
af51
aeaf
a669
1fef
aebd
a9db
acfb
20dd
2b9d
a8ef
ad84
aa46
a992
aa25
2be4
b053
2a7b
2c16
a05e
b2e3
aee4
305c
3274
b04a
b386
ad6a
368f
a69a
b32b
b043
1f16
34d7
b02b
afe6
b10c
301d
3182
adb0
af16
2c08
3071
a812
29ec
2e28
29bb
2b3f
adf8
ab57
9991
2811
2c94
a6b1
abe2
e7a
a436
2eb0
a47b
9c8b
2c10
3096
2f8d
a8bb
2d67
2f72
2d95
2894
2852
2a0c
ab1d
20c3
a5d2
b09f
2995
2242
2247
ad20
b1d8
b091
b17b
a277
b0b1
a878
aea8
b09f
a7e6
b00c
28e5
31c9
2d83
acd5
a36a
26af
a822
2d4c
af9d
2bd6
2300
3110
3326
ade7
2892
b0c0
ab92
266c
ae42
af2b
b02d
b30d
af6c
a91f
a05b
af18
a261
ab6d
ac19
9e0e
2c93
2889
2af0
2bfb
a55a
28cf
2f2c
2fdc
1768
2554
2cfc
30e4
3038
ad51
2701
2c6f
a5ae
2477
28ac
2dd4
1dc2
944b
a92d
a652
ac8c
265b
ab66
2835
b040
258a
a21c
a5cf
2c84
aff4
a0ad
aaa5
20d9
2220
b140
afea
a2e2
2562
ac24
9d86
ae09
2b1b
a5d2
287e
3289
31fa
ae97
283b
2f6a
3461
26d8
b3ce
2fb1
31ac
3485
b2ca
b6fb
b082
b6b8
2d95
b4ce
b59a
b363
b18f
3099
b19a
b21f
3083
378f
1bac
a196
a653
aa61
2cd4
a9c8
a942
abc1
aa5a
257d
ace8
aeda
b01e
a739
2086
2e34
a63e
237e
a78c
2976
2bd5
2927
2c31
26c8
aa94
a402
a95d
2be7
a820
24b0
a479
a8e9
ad10
aa26
a34c
acfb
b0e6
a99d
b1a5
acfa
b05c
b03c
a9ec
a810
a465
2f55
3088
2d2f
2c80
2c64
20bb
a49c
acb4
acb2
2d2f
2cf1
a37b
3060
2d60
30fa
a0b0
a394
ad32
aa8e
ad07
b0da
acaf
ae69
a63c
2438
3327
306e
283d
2e01
3062
2a8f
ac98
a3c6
210f
2d7b
a895
2caa
2d90
2ac3
184a
2b22
a23d
1cc5
28b3
296c
adfe
a47d
a6ef
2a54
abd5
a4b6
2c8e
2a39
a4f5
aa51
a947
2c1a
28dc
a96a
2c37
2d8b
2fb4
3131
2f2a
2c38
a177
2a36
a8dd
ad1b
a52b
ad76
a8cf
ad2a
a978
21f5
2a35
2eb5
2967
2d04
2cc3
a265
af7e
aed0
3155
2d41
b395
aedd
b016
ac46
b2d5
b625
b53e
b4e7
b45e
b180
af32
ac5c
1f82
30b1
3022
3295
3494
30dd
3229
3049
2948
aa0e
23c8
ad2b
ac66
a9f2
a5e0
20a6
2a3f
a433
2f71
a249
1dc5
9b72
2b73
ad2b
a88b
a8de
a7fe
a946
ab1e
a109
2d39
1492
2bdd
acbd
a145
a58e
2937
a61f
2174
a799
a956
266b
ace4
22f5
2c35
3020
3117
1f98
2a45
2f63
2b99
af2f
261f
2171
9d4c
af6d
2c90
3023
1748
a58d
2876
ae6b
aaaf
b1a2
abf2
b002
ae31
2d8b
28f3
ab79
308c
2fb6
a9a5
32b1
3260
3015
a58d
a914
ae3a
9bec
b18f
ab72
2bca
aad9
a5d3
aadf
2cd9
aab5
a2a9
2b95
847b
a84a
98a4
2887
2b87
a629
292d
aa97
29f1
2afe
2b31
2d61
aadb
2b4e
a909
a21b
26cf
2c41
ac8b
243e
a838
207b
2b8d
ade3
a521
adeb
2a32
a5b5
2df5
a317
2c51
a2ed
1a95
3017
2c74
2bee
a32c
ae0b
269d
a146
ab5a
af31
2598
a749
2a4f
ad9d
ac60
2717
2916
b303
a494
2e83
2ef4
2d15
3158
342f
31d5
b3e7
2e83
304d
218f
b4ba
b0a5
b2de
b0cb
b403
af4a
319c
ac8a
24f0
2c7e
2fc1
b38
2887
ab7d
2c9a
2cfa
2dc5
2eef
ad50
af40
2e71
303d
1328
2bd3
ac00
a613
2b75
a2d4
14a7
ad1a
2894
2526
acb3
2f05
2886
a879
b262
b1db
a859
3208
a946
b12b
b09a
b009
2c49
29fb
9d2d
ab85
a6d4
2d36
2623
ac3a
a541
a9f7
258e
a7bf
9fa9
2f2b
2e82
2271
acca
b0dd
2e92
2e27
2c28
a868
adf2
2b93
2ce3
2ec7
2af3
2072
2728
24b7
2ab2
272a
25df
2f86
2dbe
ae0f
ac70
a901
a8e7
ae77
ae2a
adb3
accb
1f5e
a3d8
a858
a8ba
adcd
2cd6
27ad
aa91
ad37
a6a4
266a
2efb
23e1
a1e2
2859
2d2f
ac8a
ac91
abbe
ace3
296d
2a31
2e31
181e
ac0e
2948
3041
2e57
ac0f
212a
2dd4
2ed9
2daf
ad30
addf
2dc6
aa6d
a845
9d36
a957
1afd
ab9d
aeff
b069
a3b7
aa8a
ab20
3091
aa25
b513
b1dc
a88f
313d
2d4b
b1bd
b1e2
ad5d
2505
329f
2077
a4ff
b2ce
2809
3157
2f67
a27f
b1c5
30a3
30d7
2ea9
28c3
a678
23d0
2651
2d34
2da3
2c37
2ba5
2408
288b
1544
2251
9fca
1c6a
270b
addd
a61e
29e6
291b
2490
a71e
2c8c
2a9e
2a12
2738
3053
a900
26f5
2b2b
a959
28e8
2a6b
2668
2bec
2a54
66e
a99f
ae84
24ff
2829
a923
a79b
b0db
b08b
ae98
b080
abb1
2550
30ec
2f01
a882
b00e
a803
a762
aca6
d2f
298a
2d3d
2f35
2d96
3137
2fcb
2e2d
31ed
2e30
31fb
20b6
acb0
b008
b0ab
afb2
b025
b0aa
24b8
ac25
b03d
211f
84d1
ae1e
1cfc
9354
1fab
a918
2409
2b5a
ad0f
ac69
29f3
2d7b
3147
2c81
2c76
27bd
2d61
a931
2aaa
a9af
affc
a4b4
aacc
afdc
24ce
a93e
ac15
2b24
a8bb
adf8
a831
2cfe
2e53
24b4
2d91
2f1c
2fbe
2787
2ef6
a1cc
ac59
a8f3
abb3
a488
ab74
aadb
24a7
ac40
3402
3128
ad70
af86
b069
320c
30e1
aded
2b3c
2de4
3432
2865
b1e1
ae49
2f6f
b034
b33d
b4af
b5b8
b373
b454
aaf8
25da
32f5
304e
2619
aa3c
2b88
2d25
2dc6
2829
aea0
af93
a2d0
937b
2840
2907
297f
2141
2318
2a2a
2b39
a955
aee3
a8ac
2ada
a476
282e
24cf
2d8c
267a
2958
2680
2b28
b027
ac65
acb9
acbf
a844
2cc9
adbf
afdb
205d
19eb
2d15
2dc1
3219
2c86
231a
afd9
1051
b035
af40
2c58
2c89
9890
a2c9
2839
a67e
b197
94db
27f5
b044
a95b
22ec
b04c
b1b3
b00d
30dd
3137
2c63
3367
34fa
2fef
aa7d
28e8
2bb8
b17d
ad5f
1d03
aca6
a9a3
ad43
299b
1ef5
2b51
ae30
ac30
a822
adcc
a317
b11e
ab52
aa9f
ab06
a990
ad10
aa3f
a9db
291b
209b
2bdd
2e6c
18f1
20ee
2185
2832
2681
2a6b
a249
293d
a85a
ac73
a8c4
aa87
ac63
adec
9c1f
2e02
2c21
3059
326e
2ecb
aabc
20ee
aa3f
2a97
ab66
aa4c
adae
29c1
1b9f
9bcd
af8d
aaa5
b0b8
b358
b142
9eef
2fed
b2ef
2364
34b1
3478
a5da
3428
36bd
3177
b0fb
b17b
25e3
b53f
b537
a1c3
3085